{
  "version": "1.0",
  "truncation": null,
  "padding": null,
  "added_tokens": [
    {
      "id": 0,
      "content": "[PAD]",
      "single_word": false,
      "lstrip": false,
      "rstrip": false,
      "normalized": false,
      "special": true
    },
    {
      "id": 1,
      "content": "[UNK]",
      "single_word": false,
      "lstrip": false,
      "rstrip": false,
      "normalized": false,
      "special": true
    },
    {
      "id": 2,
      "content": "[BOS]",
      "single_word": false,
      "lstrip": false,
      "rstrip": false,
      "normalized": false,
      "special": true
    },
    {
      "id": 3,
      "content": "[EOS]",
      "single_word": false,
      "lstrip": false,
      "rstrip": false,
      "normalized": false,
      "special": true
    }
  ],
  "normalizer": null,
  "pre_tokenizer": {
    "type": "Whitespace"
  },
  "post_processor": null,
  "decoder": null,
  "model": {
    "type": "BPE",
    "dropout": null,
    "unk_token": "[UNK]",
    "continuing_subword_prefix": null,
    "end_of_word_suffix": null,
    "fuse_unk": false,
    "byte_fallback": false,
    "ignore_merges": false,
    "vocab": {
      "[PAD]": 0,
      "[UNK]": 1,
      "[BOS]": 2,
      "[EOS]": 3,
      "!": 4,
      "\"": 5,
      "#": 6,
      "$": 7,
      "%": 8,
      "&": 9,
      "'": 10,
      "(": 11,
      ")": 12,
      "*": 13,
      "+": 14,
      ",": 15,
      "-": 16,
      ".": 17,
      "/": 18,
      "0": 19,
      "1": 20,
      "2": 21,
      "3": 22,
      "4": 23,
      "5": 24,
      "6": 25,
      "7": 26,
      "8": 27,
      "9": 28,
      ":": 29,
      ";": 30,
      "<": 31,
      "=": 32,
      ">": 33,
      "?": 34,
      "@": 35,
      "A": 36,
      "B": 37,
      "C": 38,
      "D": 39,
      "E": 40,
      "F": 41,
      "G": 42,
      "H": 43,
      "I": 44,
      "J": 45,
      "K": 46,
      "L": 47,
      "M": 48,
      "N": 49,
      "O": 50,
      "P": 51,
      "Q": 52,
      "R": 53,
      "S": 54,
      "T": 55,
      "U": 56,
      "V": 57,
      "W": 58,
      "X": 59,
      "Y": 60,
      "Z": 61,
      "[": 62,
      "\\": 63,
      "]": 64,
      "^": 65,
      "_": 66,
      "`": 67,
      "a": 68,
      "b": 69,
      "c": 70,
      "d": 71,
      "e": 72,
      "f": 73,
      "g": 74,
      "h": 75,
      "i": 76,
      "j": 77,
      "k": 78,
      "l": 79,
      "m": 80,
      "n": 81,
      "o": 82,
      "p": 83,
      "q": 84,
      "r": 85,
      "s": 86,
      "t": 87,
      "u": 88,
      "v": 89,
      "w": 90,
      "x": 91,
      "y": 92,
      "z": 93,
      "|": 94,
      "}": 95,
      "~": 96,
      "": 97,
      "": 98,
      "¡": 99,
      "¢": 100,
      "£": 101,
      "¥": 102,
      "§": 103,
      "©": 104,
      "°": 105,
      "±": 106,
      "²": 107,
      "³": 108,
      "´": 109,
      "µ": 110,
      "·": 111,
      "º": 112,
      "½": 113,
      "¾": 114,
      "¿": 115,
      "Á": 116,
      "Ä": 117,
      "Å": 118,
      "Æ": 119,
      "Ç": 120,
      "É": 121,
      "Í": 122,
      "Î": 123,
      "Ñ": 124,
      "Ó": 125,
      "Ö": 126,
      "×": 127,
      "Ø": 128,
      "Ú": 129,
      "Ü": 130,
      "Þ": 131,
      "ß": 132,
      "à": 133,
      "á": 134,
      "â": 135,
      "ã": 136,
      "ä": 137,
      "å": 138,
      "æ": 139,
      "ç": 140,
      "è": 141,
      "é": 142,
      "ê": 143,
      "ë": 144,
      "ì": 145,
      "í": 146,
      "î": 147,
      "ï": 148,
      "ð": 149,
      "ñ": 150,
      "ò": 151,
      "ó": 152,
      "ô": 153,
      "ö": 154,
      "ø": 155,
      "ù": 156,
      "ú": 157,
      "û": 158,
      "ü": 159,
      "ý": 160,
      "þ": 161,
      "Ā": 162,
      "ā": 163,
      "ă": 164,
      "ą": 165,
      "ć": 166,
      "Č": 167,
      "č": 168,
      "Đ": 169,
      "đ": 170,
      "Ē": 171,
      "ē": 172,
      "Ĕ": 173,
      "ĕ": 174,
      "ė": 175,
      "ę": 176,
      "ě": 177,
      "ğ": 178,
      "ħ": 179,
      "ī": 180,
      "İ": 181,
      "ı": 182,
      "Ľ": 183,
      "Ł": 184,
      "ł": 185,
      "ń": 186,
      "Ō": 187,
      "ō": 188,
      "œ": 189,
      "ř": 190,
      "Ś": 191,
      "ś": 192,
      "Ş": 193,
      "ş": 194,
      "Š": 195,
      "š": 196,
      "ţ": 197,
      "ũ": 198,
      "ū": 199,
      "ů": 200,
      "ų": 201,
      "ź": 202,
      "Ż": 203,
      "ż": 204,
      "Ž": 205,
      "ž": 206,
      "ơ": 207,
      "ư": 208,
      "ǎ": 209,
      "ǐ": 210,
      "ǔ": 211,
      "ǜ": 212,
      "Ș": 213,
      "ș": 214,
      "ț": 215,
      "ȯ": 216,
      "ɐ": 217,
      "ɑ": 218,
      "ɒ": 219,
      "ɔ": 220,
      "ə": 221,
      "ɛ": 222,
      "ɜ": 223,
      "ɡ": 224,
      "ɢ": 225,
      "ɪ": 226,
      "ɫ": 227,
      "ɳ": 228,
      "ɽ": 229,
      "ɾ": 230,
      "ʁ": 231,
      "ʃ": 232,
      "ʊ": 233,
      "ʋ": 234,
      "ʒ": 235,
      "ʔ": 236,
      "ʕ": 237,
      "ʲ": 238,
      "ʻ": 239,
      "ʼ": 240,
      "ʾ": 241,
      "ʿ": 242,
      "ˈ": 243,
      "ˌ": 244,
      "ː": 245,
      "́": 246,
      "̃": 247,
      "̍": 248,
      "̥": 249,
      "̯": 250,
      "͍": 251,
      "͘": 252,
      "Α": 253,
      "Δ": 254,
      "Κ": 255,
      "Ν": 256,
      "Π": 257,
      "Τ": 258,
      "Φ": 259,
      "Χ": 260,
      "Ω": 261,
      "ά": 262,
      "έ": 263,
      "ή": 264,
      "ί": 265,
      "α": 266,
      "β": 267,
      "γ": 268,
      "δ": 269,
      "ε": 270,
      "η": 271,
      "θ": 272,
      "ι": 273,
      "κ": 274,
      "λ": 275,
      "μ": 276,
      "ν": 277,
      "ξ": 278,
      "ο": 279,
      "π": 280,
      "ρ": 281,
      "ς": 282,
      "σ": 283,
      "τ": 284,
      "υ": 285,
      "χ": 286,
      "ψ": 287,
      "ω": 288,
      "ό": 289,
      "ύ": 290,
      "ώ": 291,
      "А": 292,
      "Б": 293,
      "В": 294,
      "Г": 295,
      "К": 296,
      "П": 297,
      "Р": 298,
      "С": 299,
      "У": 300,
      "Х": 301,
      "Я": 302,
      "а": 303,
      "в": 304,
      "г": 305,
      "д": 306,
      "е": 307,
      "ж": 308,
      "з": 309,
      "и": 310,
      "й": 311,
      "к": 312,
      "л": 313,
      "м": 314,
      "н": 315,
      "о": 316,
      "п": 317,
      "р": 318,
      "с": 319,
      "т": 320,
      "у": 321,
      "х": 322,
      "ц": 323,
      "ш": 324,
      "ъ": 325,
      "ы": 326,
      "ь": 327,
      "ю": 328,
      "я": 329,
      "є": 330,
      "ֵ": 331,
      "ֶ": 332,
      "ָ": 333,
      "ֹ": 334,
      "ּ": 335,
      "א": 336,
      "ב": 337,
      "ג": 338,
      "ה": 339,
      "ו": 340,
      "ז": 341,
      "ח": 342,
      "י": 343,
      "ל": 344,
      "ם": 345,
      "מ": 346,
      "ן": 347,
      "נ": 348,
      "ס": 349,
      "ף": 350,
      "פ": 351,
      "צ": 352,
      "ר": 353,
      "ש": 354,
      "ת": 355,
      "ء": 356,
      "أ": 357,
      "إ": 358,
      "ا": 359,
      "ب": 360,
      "ة": 361,
      "ت": 362,
      "ث": 363,
      "ج": 364,
      "ح": 365,
      "خ": 366,
      "د": 367,
      "ذ": 368,
      "ر": 369,
      "س": 370,
      "ش": 371,
      "ص": 372,
      "ع": 373,
      "ف": 374,
      "ق": 375,
      "ك": 376,
      "ل": 377,
      "م": 378,
      "ن": 379,
      "ه": 380,
      "و": 381,
      "ي": 382,
      "ڠ": 383,
      "ܐ": 384,
      "ܕ": 385,
      "ܗ": 386,
      "ܝ": 387,
      "ܠ": 388,
      "ܢ": 389,
      "ܬ": 390,
      "ܲ": 391,
      "ܵ": 392,
      "ं": 393,
      "अ": 394,
      "ई": 395,
      "क": 396,
      "ग": 397,
      "ण": 398,
      "त": 399,
      "द": 400,
      "न": 401,
      "प": 402,
      "ब": 403,
      "म": 404,
      "य": 405,
      "र": 406,
      "ल": 407,
      "व": 408,
      "ष": 409,
      "स": 410,
      "ह": 411,
      "ा": 412,
      "ि": 413,
      "ु": 414,
      "ू": 415,
      "े": 416,
      "ै": 417,
      "ो": 418,
      "्": 419,
      "আ": 420,
      "ল": 421,
      "হ": 422,
      "া": 423,
      "্": 424,
      "ਅ": 425,
      "ਲ": 426,
      "ਹ": 427,
      "ਾ": 428,
      "ੁ": 429,
      "ੱ": 430,
      "അ": 431,
      "ള": 432,
      "ഹ": 433,
      "ാ": 434,
      "്": 435,
      "ก": 436,
      "ค": 437,
      "ง": 438,
      "ช": 439,
      "ซ": 440,
      "ญ": 441,
      "ฐ": 442,
      "ณ": 443,
      "ด": 444,
      "ต": 445,
      "น": 446,
      "บ": 447,
      "ป": 448,
      "พ": 449,
      "ภ": 450,
      "ม": 451,
      "ย": 452,
      "ร": 453,
      "ล": 454,
      "ว": 455,
      "ศ": 456,
      "ษ": 457,
      "ส": 458,
      "ห": 459,
      "อ": 460,
      "ฮ": 461,
      "ะ": 462,
      "ั": 463,
      "า": 464,
      "ิ": 465,
      "ี": 466,
      "ึ": 467,
      "เ": 468,
      "แ": 469,
      "ไ": 470,
      "็": 471,
      "่": 472,
      "้": 473,
      "๊": 474,
      "์": 475,
      "ဂ": 476,
      "စ": 477,
      "ဇ": 478,
      "တ": 479,
      "န": 480,
      "ပ": 481,
      "မ": 482,
      "ရ": 483,
      "လ": 484,
      "အ": 485,
      "ာ": 486,
      "ိ": 487,
      "ု": 488,
      "္": 489,
      "်": 490,
      "ြ": 491,
      "ွ": 492,
      "၁": 493,
      "၂": 494,
      "၇": 495,
      "၈": 496,
      "Ⴀ": 497,
      "Ⴂ": 498,
      "Ⴃ": 499,
      "Ⴈ": 500,
      "Ⴌ": 501,
      "Ⴕ": 502,
      "Ⴟ": 503,
      "ა": 504,
      "ბ": 505,
      "გ": 506,
      "დ": 507,
      "ე": 508,
      "ვ": 509,
      "ზ": 510,
      "თ": 511,
      "ი": 512,
      "კ": 513,
      "ლ": 514,
      "მ": 515,
      "ნ": 516,
      "ო": 517,
      "პ": 518,
      "ჟ": 519,
      "რ": 520,
      "ს": 521,
      "ტ": 522,
      "უ": 523,
      "ფ": 524,
      "ქ": 525,
      "ღ": 526,
      "ყ": 527,
      "შ": 528,
      "ჩ": 529,
      "ც": 530,
      "ძ": 531,
      "წ": 532,
      "ჭ": 533,
      "ხ": 534,
      "ჯ": 535,
      "ჰ": 536,
      "ჱ": 537,
      "ჲ": 538,
      "ჳ": 539,
      "ჴ": 540,
      "ჵ": 541,
      "ჶ": 542,
      "ჷ": 543,
      "ჸ": 544,
      "ჹ": 545,
      "ჺ": 546,
      "჻": 547,
      "ᵻ": 548,
      "ḍ": 549,
      "ḏ": 550,
      "Ḥ": 551,
      "ḥ": 552,
      "ḷ": 553,
      "ṃ": 554,
      "ṅ": 555,
      "ṇ": 556,
      "ṛ": 557,
      "ṣ": 558,
      "ṭ": 559,
      "ṯ": 560,
      "ạ": 561,
      "ả": 562,
      "ấ": 563,
      "ầ": 564,
      "ẩ": 565,
      "ậ": 566,
      "ắ": 567,
      "ễ": 568,
      "ệ": 569,
      "ị": 570,
      "ọ": 571,
      "ỏ": 572,
      "ỗ": 573,
      "ộ": 574,
      "ớ": 575,
      "ứ": 576,
      "ử": 577,
      "ữ": 578,
      "ỳ": 579,
      "ỹ": 580,
      "ἀ": 581,
      "ἰ": 582,
      "ὀ": 583,
      "ὁ": 584,
      "ὑ": 585,
      "​": 586,
      "‐": 587,
      "‑": 588,
      "–": 589,
      "—": 590,
      "―": 591,
      "‘": 592,
      "’": 593,
      "“": 594,
      "”": 595,
      "„": 596,
      "†": 597,
      "‡": 598,
      "•": 599,
      "…": 600,
      "′": 601,
      "″": 602,
      "⁄": 603,
      "₣": 604,
      "₤": 605,
      "₩": 606,
      "€": 607,
      "₱": 608,
      "₹": 609,
      "⅓": 610,
      "⅔": 611,
      "→": 612,
      "−": 613,
      "≡": 614,
      "≤": 615,
      "①": 616,
      "☉": 617,
      "☫": 618,
      "♀": 619,
      "♭": 620,
      "♯": 621,
      "⚳": 622,
      "〈": 623,
      "〉": 624,
      "〜": 625,
      "あ": 626,
      "い": 627,
      "う": 628,
      "お": 629,
      "か": 630,
      "が": 631,
      "き": 632,
      "ぎ": 633,
      "く": 634,
      "ぐ": 635,
      "け": 636,
      "こ": 637,
      "ご": 638,
      "さ": 639,
      "し": 640,
      "す": 641,
      "ず": 642,
      "ぜ": 643,
      "た": 644,
      "だ": 645,
      "ち": 646,
      "っ": 647,
      "つ": 648,
      "と": 649,
      "な": 650,
      "に": 651,
      "の": 652,
      "は": 653,
      "ば": 654,
      "ひ": 655,
      "ふ": 656,
      "ほ": 657,
      "ま": 658,
      "み": 659,
      "め": 660,
      "も": 661,
      "ゃ": 662,
      "ゆ": 663,
      "ょ": 664,
      "ら": 665,
      "り": 666,
      "る": 667,
      "れ": 668,
      "わ": 669,
      "を": 670,
      "ん": 671,
      "ァ": 672,
      "ア": 673,
      "ィ": 674,
      "イ": 675,
      "ゥ": 676,
      "ェ": 677,
      "エ": 678,
      "ォ": 679,
      "オ": 680,
      "カ": 681,
      "ガ": 682,
      "キ": 683,
      "ク": 684,
      "グ": 685,
      "ゲ": 686,
      "コ": 687,
      "サ": 688,
      "シ": 689,
      "ジ": 690,
      "ス": 691,
      "ズ": 692,
      "セ": 693,
      "タ": 694,
      "ダ": 695,
      "チ": 696,
      "ッ": 697,
      "ツ": 698,
      "テ": 699,
      "デ": 700,
      "ト": 701,
      "ド": 702,
      "ナ": 703,
      "ニ": 704,
      "ネ": 705,
      "ノ": 706,
      "ハ": 707,
      "バ": 708,
      "パ": 709,
      "フ": 710,
      "ブ": 711,
      "プ": 712,
      "ヘ": 713,
      "ベ": 714,
      "マ": 715,
      "ミ": 716,
      "ム": 717,
      "モ": 718,
      "ャ": 719,
      "ュ": 720,
      "ョ": 721,
      "ラ": 722,
      "リ": 723,
      "ル": 724,
      "レ": 725,
      "ロ": 726,
      "ン": 727,
      "ヴ": 728,
      "・": 729,
      "ー": 730,
      "一": 731,
      "七": 732,
      "下": 733,
      "世": 734,
      "丙": 735,
      "中": 736,
      "为": 737,
      "主": 738,
      "乃": 739,
      "之": 740,
      "乙": 741,
      "九": 742,
      "二": 743,
      "云": 744,
      "人": 745,
      "今": 746,
      "付": 747,
      "伊": 748,
      "似": 749,
      "作": 750,
      "侗": 751,
      "依": 752,
      "信": 753,
      "傳": 754,
      "儚": 755,
      "充": 756,
      "光": 757,
      "全": 758,
      "八": 759,
      "六": 760,
      "兵": 761,
      "其": 762,
      "具": 763,
      "円": 764,
      "再": 765,
      "出": 766,
      "判": 767,
      "利": 768,
      "制": 769,
      "刷": 770,
      "前": 771,
      "剛": 772,
      "劇": 773,
      "劉": 774,
      "助": 775,
      "動": 776,
      "勢": 777,
      "包": 778,
      "化": 779,
      "北": 780,
      "十": 781,
      "千": 782,
      "华": 783,
      "南": 784,
      "印": 785,
      "厂": 786,
      "去": 787,
      "古": 788,
      "可": 789,
      "台": 790,
      "史": 791,
      "同": 792,
      "名": 793,
      "君": 794,
      "吳": 795,
      "周": 796,
      "命": 797,
      "和": 798,
      "咲": 799,
      "唐": 800,
      "善": 801,
      "四": 802,
      "國": 803,
      "園": 804,
      "圣": 805,
      "在": 806,
      "坂": 807,
      "型": 808,
      "堂": 809,
      "堤": 810,
      "場": 811,
      "塘": 812,
      "士": 813,
      "夕": 814,
      "大": 815,
      "天": 816,
      "夫": 817,
      "奈": 818,
      "套": 819,
      "女": 820,
      "妙": 821,
      "姚": 822,
      "子": 823,
      "孟": 824,
      "学": 825,
      "學": 826,
      "守": 827,
      "安": 828,
      "宋": 829,
      "完": 830,
      "宗": 831,
      "定": 832,
      "宝": 833,
      "宫": 834,
      "寝": 835,
      "寶": 836,
      "寺": 837,
      "小": 838,
      "少": 839,
      "尾": 840,
      "山": 841,
      "岳": 842,
      "川": 843,
      "州": 844,
      "巳": 845,
      "市": 846,
      "師": 847,
      "平": 848,
      "广": 849,
      "庆": 850,
      "府": 851,
      "座": 852,
      "廬": 853,
      "建": 854,
      "开": 855,
      "式": 856,
      "張": 857,
      "彌": 858,
      "彩": 859,
      "影": 860,
      "彼": 861,
      "征": 862,
      "律": 863,
      "後": 864,
      "御": 865,
      "微": 866,
      "德": 867,
      "心": 868,
      "必": 869,
      "忠": 870,
      "思": 871,
      "愛": 872,
      "憑": 873,
      "憶": 874,
      "應": 875,
      "懷": 876,
      "成": 877,
      "战": 878,
      "戦": 879,
      "所": 880,
      "扈": 881,
      "技": 882,
      "拉": 883,
      "拱": 884,
      "拳": 885,
      "挑": 886,
      "揺": 887,
      "攻": 888,
      "放": 889,
      "政": 890,
      "散": 891,
      "文": 892,
      "斯": 893,
      "方": 894,
      "日": 895,
      "旦": 896,
      "旭": 897,
      "昌": 898,
      "明": 899,
      "星": 900,
      "春": 901,
      "晋": 902,
      "景": 903,
      "智": 904,
      "曦": 905,
      "書": 906,
      "月": 907,
      "望": 908,
      "朝": 909,
      "未": 910,
      "本": 911,
      "李": 912,
      "村": 913,
      "杜": 914,
      "束": 915,
      "来": 916,
      "東": 917,
      "板": 918,
      "林": 919,
      "果": 920,
      "桜": 921,
      "梶": 922,
      "棘": 923,
      "椎": 924,
      "楊": 925,
      "楚": 926,
      "榮": 927,
      "樸": 928,
      "橘": 929,
      "機": 930,
      "正": 931,
      "殻": 932,
      "殿": 933,
      "毅": 934,
      "母": 935,
      "民": 936,
      "水": 937,
      "汉": 938,
      "沂": 939,
      "沙": 940,
      "河": 941,
      "法": 942,
      "泗": 943,
      "波": 944,
      "泣": 945,
      "洪": 946,
      "浮": 947,
      "淹": 948,
      "清": 949,
      "湯": 950,
      "漢": 951,
      "澄": 952,
      "澤": 953,
      "火": 954,
      "灯": 955,
      "灵": 956,
      "灼": 957,
      "無": 958,
      "焼": 959,
      "熱": 960,
      "牌": 961,
      "物": 962,
      "狐": 963,
      "狸": 964,
      "玄": 965,
      "玉": 966,
      "王": 967,
      "玩": 968,
      "珂": 969,
      "珙": 970,
      "球": 971,
      "理": 972,
      "琦": 973,
      "琪": 974,
      "瓊": 975,
      "生": 976,
      "甫": 977,
      "田": 978,
      "甲": 979,
      "畢": 980,
      "番": 981,
      "畫": 982,
      "疆": 983,
      "病": 984,
      "瘡": 985,
      "白": 986,
      "皇": 987,
      "皮": 988,
      "真": 989,
      "砲": 990,
      "礮": 991,
      "祈": 992,
      "神": 993,
      "祠": 994,
      "秋": 995,
      "秘": 996,
      "稽": 997,
      "空": 998,
      "立": 999,
      "竹": 1000,
      "箋": 1001,
      "籠": 1002,
      "精": 1003,
      "紀": 1004,
      "約": 1005,
      "統": 1006,
      "絵": 1007,
      "緬": 1008,
      "織": 1009,
      "繹": 1010,
      "義": 1011,
      "翠": 1012,
      "者": 1013,
      "耕": 1014,
      "聖": 1015,
      "肖": 1016,
      "背": 1017,
      "胡": 1018,
      "膀": 1019,
      "臂": 1020,
      "致": 1021,
      "興": 1022,
      "舍": 1023,
      "艦": 1024,
      "良": 1025,
      "芥": 1026,
      "花": 1027,
      "芳": 1028,
      "芽": 1029,
      "若": 1030,
      "英": 1031,
      "萬": 1032,
      "著": 1033,
      "藕": 1034,
      "藥": 1035,
      "蘄": 1036,
      "蘇": 1037,
      "蘿": 1038,
      "處": 1039,
      "蝴": 1040,
      "蝶": 1041,
      "行": 1042,
      "術": 1043,
      "衛": 1044,
      "表": 1045,
      "裁": 1046,
      "裝": 1047,
      "要": 1048,
      "規": 1049,
      "覺": 1050,
      "观": 1051,
      "解": 1052,
      "言": 1053,
      "記": 1054,
      "詔": 1055,
      "詩": 1056,
      "誓": 1057,
      "誡": 1058,
      "誰": 1059,
      "謎": 1060,
      "譌": 1061,
      "譚": 1062,
      "譜": 1063,
      "變": 1064,
      "许": 1065,
      "谭": 1066,
      "豪": 1067,
      "豫": 1068,
      "費": 1069,
      "贈": 1070,
      "贵": 1071,
      "赤": 1072,
      "趙": 1073,
      "足": 1074,
      "跡": 1075,
      "軒": 1076,
      "転": 1077,
      "辛": 1078,
      "辨": 1079,
      "迪": 1080,
      "逆": 1081,
      "遇": 1082,
      "運": 1083,
      "過": 1084,
      "道": 1085,
      "遠": 1086,
      "選": 1087,
      "邦": 1088,
      "邱": 1089,
      "邵": 1090,
      "部": 1091,
      "郭": 1092,
      "都": 1093,
      "酈": 1094,
      "里": 1095,
      "野": 1096,
      "金": 1097,
      "鉄": 1098,
      "銃": 1099,
      "鋼": 1100,
      "錄": 1101,
      "錡": 1102,
      "錦": 1103,
      "鍵": 1104,
      "鐵": 1105,
      "钱": 1106,
      "铁": 1107,
      "關": 1108,
      "防": 1109,
      "阿": 1110,
      "陈": 1111,
      "陳": 1112,
      "陽": 1113,
      "隊": 1114,
      "階": 1115,
      "集": 1116,
      "雞": 1117,
      "雪": 1118,
      "雲": 1119,
      "霖": 1120,
      "霹": 1121,
      "靂": 1122,
      "韓": 1123,
      "頒": 1124,
      "願": 1125,
      "類": 1126,
      "顯": 1127,
      "颜": 1128,
      "饾": 1129,
      "駢": 1130,
      "驗": 1131,
      "马": 1132,
      "體": 1133,
      "高": 1134,
      "魯": 1135,
      "齋": 1136,
      "龍": 1137,
      "대": 1138,
      "독": 1139,
      "라": 1140,
      "립": 1141,
      "병": 1142,
      "보": 1143,
      "부": 1144,
      "알": 1145,
      "연": 1146,
      "제": 1147,
      "ﷲ": 1148,
      "ﻋ": 1149,
      "﻿": 1150,
      "／": 1151,
      "３": 1152,
      "～": 1153,
      "�": 1154,
      "th": 1155,
      "in": 1156,
      "the": 1157,
      "an": 1158,
      "er": 1159,
      "on": 1160,
      "ed": 1161,
      "re": 1162,
      "at": 1163,
      "en": 1164,
      "or": 1165,
      "st": 1166,
      "al": 1167,
      "ar": 1168,
      "of": 1169,
      "and": 1170,
      "as": 1171,
      "es": 1172,
      "ing": 1173,
      "is": 1174,
      "to": 1175,
      "it": 1176,
      "ou": 1177,
      "ic": 1178,
      "ion": 1179,
      "he": 1180,
      "ro": 1181,
      "le": 1182,
      "il": 1183,
      "ac": 1184,
      "ent": 1185,
      "ad": 1186,
      "se": 1187,
      "am": 1188,
      "om": 1189,
      "be": 1190,
      "ly": 1191,
      "ch": 1192,
      "was": 1193,
      "ur": 1194,
      "for": 1195,
      "de": 1196,
      "ve": 1197,
      "The": 1198,
      "ir": 1199,
      "ol": 1200,
      "im": 1201,
      "ig": 1202,
      "-@": 1203,
      "@-@": 1204,
      "ver": 1205,
      "ow": 1206,
      "wh": 1207,
      "un": 1208,
      "ter": 1209,
      "wi": 1210,
      "ay": 1211,
      "ce": 1212,
      "con": 1213,
      "ation": 1214,
      "with": 1215,
      "that": 1216,
      "ag": 1217,
      "ct": 1218,
      "te": 1219,
      "id": 1220,
      "by": 1221,
      "us": 1222,
      "ul": 1223,
      "el": 1224,
      "ri": 1225,
      "ot": 1226,
      "ap": 1227,
      "res": 1228,
      "ere": 1229,
      "et": 1230,
      "ain": 1231,
      "op": 1232,
      "19": 1233,
      "com": 1234,
      "rom": 1235,
      "pl": 1236,
      "ut": 1237,
      "um": 1238,
      "oun": 1239,
      "all": 1240,
      "00": 1241,
      "his": 1242,
      "ab": 1243,
      "ers": 1244,
      "mo": 1245,
      "su": 1246,
      "li": 1247,
      "are": 1248,
      "from": 1249,
      "ther": 1250,
      "di": 1251,
      "pro": 1252,
      "pe": 1253,
      "sh": 1254,
      "ne": 1255,
      "In": 1256,
      "tr": 1257,
      "cl": 1258,
      "ate": 1259,
      "os": 1260,
      "em": 1261,
      "art": 1262,
      "were": 1263,
      "igh": 1264,
      "si": 1265,
      "ong": 1266,
      "est": 1267,
      "ak": 1268,
      "ill": 1269,
      "ex": 1270,
      "ich": 1271,
      "oc": 1272,
      "ies": 1273,
      "ld": 1274,
      "ast": 1275,
      "ber": 1276,
      "ard": 1277,
      "gh": 1278,
      "ish": 1279,
      "od": 1280,
      "ated": 1281,
      "ity": 1282,
      "ant": 1283,
      "per": 1284,
      "ort": 1285,
      "qu": 1286,
      "out": 1287,
      "ame": 1288,
      "man": 1289,
      "ment": 1290,
      "ist": 1291,
      "als": 1292,
      "had": 1293,
      "fe": 1294,
      "ess": 1295,
      "end": 1296,
      "ack": 1297,
      "one": 1298,
      "av": 1299,
      "over": 1300,
      "ear": 1301,
      "our": 1302,
      "tw": 1303,
      "ough": 1304,
      "str": 1305,
      "which": 1306,
      "ge": 1307,
      "der": 1308,
      "af": 1309,
      "iv": 1310,
      "not": 1311,
      "ive": 1312,
      "ave": 1313,
      "ound": 1314,
      "ine": 1315,
      "gr": 1316,
      "but": 1317,
      "ally": 1318,
      "ip": 1319,
      "rit": 1320,
      "Ch": 1321,
      "its": 1322,
      "ight": 1323,
      "ian": 1324,
      "act": 1325,
      "ary": 1326,
      "vi": 1327,
      "ud": 1328,
      "ass": 1329,
      "own": 1330,
      "ore": 1331,
      "fir": 1332,
      "pr": 1333,
      "200": 1334,
      "du": 1335,
      "if": 1336,
      "wor": 1337,
      "her": 1338,
      "20": 1339,
      "ous": 1340,
      "port": 1341,
      "St": 1342,
      "up": 1343,
      "po": 1344,
      "ach": 1345,
      "ew": 1346,
      "land": 1347,
      "ev": 1348,
      "ep": 1349,
      "cor": 1350,
      "bo": 1351,
      "lo": 1352,
      "their": 1353,
      "aw": 1354,
      "au": 1355,
      "comp": 1356,
      "ould": 1357,
      "first": 1358,
      "att": 1359,
      "age": 1360,
      "bl": 1361,
      "ia": 1362,
      "ical": 1363,
      "low": 1364,
      "also": 1365,
      "ition": 1366,
      "other": 1367,
      "tim": 1368,
      "ll": 1369,
      "ign": 1370,
      "form": 1371,
      "ction": 1372,
      "int": 1373,
      "ke": 1374,
      "He": 1375,
      "has": 1376,
      "ater": 1377,
      "ser": 1378,
      "ial": 1379,
      "ure": 1380,
      "have": 1381,
      "18": 1382,
      "play": 1383,
      "pt": 1384,
      "ome": 1385,
      "who": 1386,
      "part": 1387,
      "been": 1388,
      "ree": 1389,
      "two": 1390,
      ".@": 1391,
      "@.@": 1392,
      "ran": 1393,
      "ok": 1394,
      "uring": 1395,
      "gu": 1396,
      "cont": 1397,
      "cre": 1398,
      "ence": 1399,
      "off": 1400,
      "pres": 1401,
      "ile": 1402,
      "dis": 1403,
      "me": 1404,
      "this": 1405,
      "des": 1406,
      "pre": 1407,
      "cent": 1408,
      "ans": 1409,
      "br": 1410,
      "It": 1411,
      "mer": 1412,
      "pos": 1413,
      "ade": 1414,
      "we": 1415,
      "Th": 1416,
      "they": 1417,
      "after": 1418,
      "An": 1419,
      "ult": 1420,
      "ite": 1421,
      "ren": 1422,
      "co": 1423,
      ",@": 1424,
      "@,@": 1425,
      "mon": 1426,
      "year": 1427,
      "201": 1428,
      "ell": 1429,
      "fin": 1430,
      "sp": 1431,
      "incl": 1432,
      "ved": 1433,
      "ace": 1434,
      "sc": 1435,
      "ory": 1436,
      "urn": 1437,
      "cord": 1438,
      "ice": 1439,
      "able": 1440,
      "ue": 1441,
      "ations": 1442,
      "work": 1443,
      "ra": 1444,
      "ever": 1445,
      "ph": 1446,
      "ff": 1447,
      "tem": 1448,
      "ship": 1449,
      "Un": 1450,
      "time": 1451,
      "into": 1452,
      "ark": 1453,
      "iz": 1454,
      "ces": 1455,
      "no": 1456,
      "sion": 1457,
      "Au": 1458,
      "ced": 1459,
      "ance": 1460,
      "air": 1461,
      "ted": 1462,
      "more": 1463,
      "spe": 1464,
      "any": 1465,
      "ick": 1466,
      "most": 1467,
      "inter": 1468,
      "vel": 1469,
      "cr": 1470,
      "would": 1471,
      "him": 1472,
      "main": 1473,
      "used": 1474,
      "amp": 1475,
      "ts": 1476,
      "ty": 1477,
      "ited": 1478,
      "ire": 1479,
      "og": 1480,
      "cted": 1481,
      "cond": 1482,
      "fore": 1483,
      "she": 1484,
      "bec": 1485,
      "ann": 1486,
      "ased": 1487,
      "includ": 1488,
      "ang": 1489,
      "Al": 1490,
      "old": 1491,
      "fl": 1492,
      "way": 1493,
      "min": 1494,
      "ason": 1495,
      "ates": 1496,
      "ail": 1497,
      "though": 1498,
      "ie": 1499,
      "rough": 1500,
      "ican": 1501,
      "ings": 1502,
      "Ar": 1503,
      "ath": 1504,
      "bu": 1505,
      "ten": 1506,
      "vis": 1507,
      "comm": 1508,
      "gan": 1509,
      "ry": 1510,
      "new": 1511,
      "arch": 1512,
      "during": 1513,
      "under": 1514,
      "red": 1515,
      "when": 1516,
      "ob": 1517,
      "ions": 1518,
      "ind": 1519,
      "ake": 1520,
      "reg": 1521,
      "nor": 1522,
      "day": 1523,
      "ase": 1524,
      "ents": 1525,
      "row": 1526,
      "ble": 1527,
      "ose": 1528,
      "ict": 1529,
      "outh": 1530,
      "fil": 1531,
      "ret": 1532,
      "col": 1533,
      "ward": 1534,
      "les": 1535,
      "only": 1536,
      "them": 1537,
      "ild": 1538,
      "kn": 1539,
      "song": 1540,
      "ors": 1541,
      "son": 1542,
      "again": 1543,
      "ubl": 1544,
      "ollow": 1545,
      "cess": 1546,
      "een": 1547,
      "go": 1548,
      "On": 1549,
      "lar": 1550,
      "ron": 1551,
      "gen": 1552,
      "about": 1553,
      "game": 1554,
      "three": 1555,
      "while": 1556,
      "some": 1557,
      "oy": 1558,
      "sy": 1559,
      "than": 1560,
      "Com": 1561,
      "199": 1562,
      "stru": 1563,
      "ational": 1564,
      "num": 1565,
      "ck": 1566,
      "ern": 1567,
      "so": 1568,
      "ful": 1569,
      "through": 1570,
      "En": 1571,
      "where": 1572,
      "tween": 1573,
      "can": 1574,
      "between": 1575,
      "season": 1576,
      "film": 1577,
      "iver": 1578,
      "ating": 1579,
      "Wh": 1580,
      "coun": 1581,
      "char": 1582,
      "Amer": 1583,
      "10": 1584,
      "dr": 1585,
      "ered": 1586,
      "ton": 1587,
      "later": 1588,
      "ied": 1589,
      "writ": 1590,
      "led": 1591,
      "sing": 1592,
      "produ": 1593,
      "ef": 1594,
      "New": 1595,
      "ust": 1596,
      "sub": 1597,
      "ular": 1598,
      "tain": 1599,
      "Af": 1600,
      "As": 1601,
      "aid": 1602,
      "loc": 1603,
      "made": 1604,
      "Re": 1605,
      "record": 1606,
      "view": 1607,
      "ven": 1608,
      "my": 1609,
      "rele": 1610,
      "ames": 1611,
      "000": 1612,
      "set": 1613,
      "mi": 1614,
      "ele": 1615,
      "then": 1616,
      "spec": 1617,
      "rop": 1618,
      "ished": 1619,
      "cur": 1620,
      "high": 1621,
      "cap": 1622,
      "follow": 1623,
      "ics": 1624,
      "do": 1625,
      "sel": 1626,
      "four": 1627,
      "rel": 1628,
      "ury": 1629,
      "ma": 1630,
      "call": 1631,
      "sur": 1632,
      "second": 1633,
      "ters": 1634,
      "appe": 1635,
      "back": 1636,
      "Le": 1637,
      "ci": 1638,
      "well": 1639,
      "ines": 1640,
      "sup": 1641,
      "No": 1642,
      "ood": 1643,
      "At": 1644,
      "12": 1645,
      "side": 1646,
      "before": 1647,
      "Jo": 1648,
      "bum": 1649,
      "med": 1650,
      "such": 1651,
      "16": 1652,
      "publ": 1653,
      "ari": 1654,
      "This": 1655,
      "je": 1656,
      "ros": 1657,
      "ual": 1658,
      "Nor": 1659,
      "15": 1660,
      "De": 1661,
      "arri": 1662,
      "there": 1663,
      "iel": 1664,
      "being": 1665,
      "Sh": 1666,
      "ub": 1667,
      "add": 1668,
      "ning": 1669,
      "ily": 1670,
      "fer": 1671,
      "many": 1672,
      "..": 1673,
      "Brit": 1674,
      "urch": 1675,
      "ond": 1676,
      "number": 1677,
      "ks": 1678,
      "use": 1679,
      "17": 1680,
      "ative": 1681,
      "mus": 1682,
      "owever": 1683,
      "known": 1684,
      "mber": 1685,
      "ars": 1686,
      "atch": 1687,
      "ens": 1688,
      "sever": 1689,
      "ific": 1690,
      "ins": 1691,
      "ft": 1692,
      "album": 1693,
      "found": 1694,
      "ince": 1695,
      "par": 1696,
      "years": 1697,
      "against": 1698,
      "cri": 1699,
      "head": 1700,
      "like": 1701,
      "hel": 1702,
      "long": 1703,
      "ale": 1704,
      "unt": 1705,
      "reat": 1706,
      "down": 1707,
      "oup": 1708,
      "ause": 1709,
      "uary": 1710,
      "point": 1711,
      "both": 1712,
      "eng": 1713,
      "velop": 1714,
      "including": 1715,
      "series": 1716,
      "cho": 1717,
      "ped": 1718,
      "became": 1719,
      "line": 1720,
      "Eng": 1721,
      "Be": 1722,
      "cons": 1723,
      "dire": 1724,
      "ities": 1725,
      "team": 1726,
      "ide": 1727,
      "feat": 1728,
      "trans": 1729,
      "ird": 1730,
      "ments": 1731,
      "30": 1732,
      "pop": 1733,
      "az": 1734,
      "igin": 1735,
      "ident": 1736,
      "cover": 1737,
      "west": 1738,
      "epis": 1739,
      "contin": 1740,
      "Br": 1741,
      "ise": 1742,
      "ese": 1743,
      "United": 1744,
      "mem": 1745,
      "ode": 1746,
      "198": 1747,
      "hn": 1748,
      "war": 1749,
      "uch": 1750,
      "194": 1751,
      "mill": 1752,
      "Ro": 1753,
      "oper": 1754,
      "tri": 1755,
      "ock": 1756,
      "stral": 1757,
      "ste": 1758,
      "stor": 1759,
      "olog": 1760,
      "several": 1761,
      "ised": 1762,
      "diff": 1763,
      "charac": 1764,
      "try": 1765,
      "ures": 1766,
      "Con": 1767,
      "cer": 1768,
      "develop": 1769,
      "suc": 1770,
      "road": 1771,
      "eral": 1772,
      "ield": 1773,
      "appear": 1774,
      "lan": 1775,
      "American": 1776,
      "bed": 1777,
      "rece": 1778,
      "city": 1779,
      "After": 1780,
      "ost": 1781,
      "pol": 1782,
      "Austral": 1783,
      "peri": 1784,
      "lead": 1785,
      "cy": 1786,
      "show": 1787,
      "comple": 1788,
      "ord": 1789,
      "began": 1790,
      "une": 1791,
      "II": 1792,
      "mis": 1793,
      "origin": 1794,
      "mil": 1795,
      "along": 1796,
      "descri": 1797,
      "called": 1798,
      "sign": 1799,
      "cle": 1800,
      "did": 1801,
      "serv": 1802,
      "ball": 1803,
      "May": 1804,
      "met": 1805,
      "remain": 1806,
      "British": 1807,
      "dam": 1808,
      "John": 1809,
      "run": 1810,
      "sm": 1811,
      "Ger": 1812,
      "nam": 1813,
      "ended": 1814,
      "century": 1815,
      "could": 1816,
      "ived": 1817,
      "197": 1818,
      "near": 1819,
      "ually": 1820,
      "early": 1821,
      "196": 1822,
      "hist": 1823,
      "sist": 1824,
      "may": 1825,
      "Mar": 1826,
      "ash": 1827,
      "ah": 1828,
      "large": 1829,
      "Se": 1830,
      "She": 1831,
      "Wor": 1832,
      "gust": 1833,
      "ms": 1834,
      "US": 1835,
      "ject": 1836,
      "these": 1837,
      "pass": 1838,
      "por": 1839,
      "plac": 1840,
      "said": 1841,
      "ley": 1842,
      "hy": 1843,
      "aking": 1844,
      "km": 1845,
      "io": 1846,
      "crit": 1847,
      "present": 1848,
      "ross": 1849,
      "self": 1850,
      "leg": 1851,
      "inv": 1852,
      "For": 1853,
      "dec": 1854,
      "episode": 1855,
      "ople": 1856,
      "tow": 1857,
      "14": 1858,
      "vid": 1859,
      "Car": 1860,
      "now": 1861,
      "attack": 1862,
      "ib": 1863,
      "13": 1864,
      "design": 1865,
      "bor": 1866,
      "ith": 1867,
      "men": 1868,
      "War": 1869,
      "until": 1870,
      "Jan": 1871,
      "gg": 1872,
      "open": 1873,
      "start": 1874,
      "return": 1875,
      "state": 1876,
      "ting": 1877,
      "xt": 1878,
      "ized": 1879,
      "ica": 1880,
      "ress": 1881,
      "ru": 1882,
      "pers": 1883,
      "Sep": 1884,
      "Is": 1885,
      "dep": 1886,
      "50": 1887,
      "stem": 1888,
      "thern": 1889,
      "area": 1890,
      "sive": 1891,
      "Man": 1892,
      "overn": 1893,
      "ca": 1894,
      "success": 1895,
      "August": 1896,
      "car": 1897,
      "jor": 1898,
      "offic": 1899,
      "ple": 1900,
      "east": 1901,
      "Gr": 1902,
      "ves": 1903,
      "tember": 1904,
      "group": 1905,
      "light": 1906,
      "September": 1907,
      "fam": 1908,
      "ision": 1909,
      "formed": 1910,
      "north": 1911,
      "released": 1912,
      "music": 1913,
      "ower": 1914,
      "continu": 1915,
      "gun": 1916,
      "Ju": 1917,
      "less": 1918,
      "They": 1919,
      "Col": 1920,
      "king": 1921,
      "same": 1922,
      "around": 1923,
      "let": 1924,
      "rist": 1925,
      "stri": 1926,
      "because": 1927,
      "million": 1928,
      "support": 1929,
      "North": 1930,
      "sim": 1931,
      "ather": 1932,
      "oci": 1933,
      "cept": 1934,
      "def": 1935,
      "each": 1936,
      "oot": 1937,
      "six": 1938,
      "la": 1939,
      "batt": 1940,
      "position": 1941,
      "ious": 1942,
      "chool": 1943,
      "come": 1944,
      "people": 1945,
      "gy": 1946,
      "fect": 1947,
      "national": 1948,
      "small": 1949,
      "ouse": 1950,
      "ured": 1951,
      "che": 1952,
      "following": 1953,
      "win": 1954,
      "tal": 1955,
      "bers": 1956,
      "vide": 1957,
      "top": 1958,
      "ek": 1959,
      "ivers": 1960,
      "val": 1961,
      "consid": 1962,
      "However": 1963,
      "mark": 1964,
      "requ": 1965,
      "get": 1966,
      "enn": 1967,
      "vision": 1968,
      "sol": 1969,
      "ctor": 1970,
      "rest": 1971,
      "11": 1972,
      "cour": 1973,
      "atter": 1974,
      "June": 1975,
      "Gu": 1976,
      "field": 1977,
      "grap": 1978,
      "World": 1979,
      "ae": 1980,
      "result": 1981,
      "aim": 1982,
      "cut": 1983,
      "ving": 1984,
      "overnment": 1985,
      "rote": 1986,
      "South": 1987,
      "five": 1988,
      "report": 1989,
      "late": 1990,
      "Eu": 1991,
      "character": 1992,
      "sou": 1993,
      "south": 1994,
      "order": 1995,
      "prote": 1996,
      "contro": 1997,
      "pon": 1998,
      "Fe": 1999,
      "took": 2000,
      "book": 2001,
      "what": 2002,
      "prom": 2003,
      "very": 2004,
      "reach": 2005,
      "list": 2006,
      "ilt": 2007,
      "track": 2008,
      "played": 2009,
      "ank": 2010,
      "Ste": 2011,
      "Oc": 2012,
      "oss": 2013,
      "aving": 2014,
      "since": 2015,
      "ime": 2016,
      "0s": 2017,
      "25": 2018,
      "dom": 2019,
      "ately": 2020,
      "ropical": 2021,
      "aged": 2022,
      "kill": 2023,
      "ner": 2024,
      "ined": 2025,
      "Wil": 2026,
      "allow": 2027,
      "will": 2028,
      "ina": 2029,
      "tle": 2030,
      "name": 2031,
      "ained": 2032,
      "place": 2033,
      "ls": 2034,
      "ired": 2035,
      "cording": 2036,
      "appro": 2037,
      "avy": 2038,
      "States": 2039,
      "tit": 2040,
      "und": 2041,
      "ling": 2042,
      "stand": 2043,
      "arm": 2044,
      "lish": 2045,
      "ism": 2046,
      "ists": 2047,
      "major": 2048,
      "Fran": 2049,
      "cast": 2050,
      "ham": 2051,
      "read": 2052,
      "Bo": 2053,
      "ural": 2054,
      "town": 2055,
      "organ": 2056,
      "moved": 2057,
      "life": 2058,
      "Bl": 2059,
      "build": 2060,
      "band": 2061,
      "tober": 2062,
      "October": 2063,
      "ales": 2064,
      "adv": 2065,
      "even": 2066,
      "ague": 2067,
      "public": 2068,
      "just": 2069,
      "ody": 2070,
      "final": 2071,
      "received": 2072,
      "won": 2073,
      "ships": 2074,
      "partic": 2075,
      "July": 2076,
      "Ac": 2077,
      "ik": 2078,
      "sequ": 2079,
      "ians": 2080,
      "last": 2081,
      "ility": 2082,
      "Me": 2083,
      "Cl": 2084,
      "named": 2085,
      "wards": 2086,
      "ages": 2087,
      "bre": 2088,
      "ats": 2089,
      "vious": 2090,
      "aft": 2091,
      "Her": 2092,
      "giv": 2093,
      "ons": 2094,
      "built": 2095,
      "system": 2096,
      "German": 2097,
      "gre": 2098,
      "match": 2099,
      "ork": 2100,
      "ional": 2101,
      "constru": 2102,
      "ants": 2103,
      "ground": 2104,
      "incre": 2105,
      "pen": 2106,
      "due": 2107,
      "January": 2108,
      "Coun": 2109,
      "ets": 2110,
      "fur": 2111,
      "vari": 2112,
      "ards": 2113,
      "pri": 2114,
      "tempt": 2115,
      "ler": 2116,
      "ude": 2117,
      "included": 2118,
      "pit": 2119,
      "world": 2120,
      "oman": 2121,
      "lit": 2122,
      "Mc": 2123,
      "ony": 2124,
      "described": 2125,
      "gin": 2126,
      "water": 2127,
      "ys": 2128,
      "power": 2129,
      "During": 2130,
      "hal": 2131,
      "star": 2132,
      "Christ": 2133,
      "rican": 2134,
      "ery": 2135,
      "ask": 2136,
      "child": 2137,
      "ris": 2138,
      "All": 2139,
      "much": 2140,
      "liam": 2141,
      "Sp": 2142,
      "hand": 2143,
      "Pl": 2144,
      "aur": 2145,
      "ute": 2146,
      "single": 2147,
      "Apr": 2148,
      "April": 2149,
      "King": 2150,
      "York": 2151,
      "apan": 2152,
      "ric": 2153,
      "ink": 2154,
      "government": 2155,
      "dest": 2156,
      "Mon": 2157,
      "species": 2158,
      "turn": 2159,
      "Japan": 2160,
      "cas": 2161,
      "sed": 2162,
      "attempt": 2163,
      "Nove": 2164,
      "event": 2165,
      "Can": 2166,
      "another": 2167,
      "November": 2168,
      "rench": 2169,
      "fall": 2170,
      "care": 2171,
      "sent": 2172,
      "wrote": 2173,
      "camp": 2174,
      "jo": 2175,
      "left": 2176,
      "command": 2177,
      "although": 2178,
      "death": 2179,
      "Par": 2180,
      "within": 2181,
      "ai": 2182,
      "udi": 2183,
      "Ph": 2184,
      "dist": 2185,
      "West": 2186,
      "based": 2187,
      "ically": 2188,
      "ement": 2189,
      "roy": 2190,
      "claim": 2191,
      "ness": 2192,
      "...": 2193,
      "right": 2194,
      "short": 2195,
      "March": 2196,
      "differ": 2197,
      "storm": 2198,
      "idge": 2199,
      "akes": 2200,
      "estab": 2201,
      "gener": 2202,
      "third": 2203,
      "home": 2204,
      "ster": 2205,
      "previous": 2206,
      "ially": 2207,
      "ush": 2208,
      "Dece": 2209,
      "ref": 2210,
      "December": 2211,
      "ax": 2212,
      "vent": 2213,
      "den": 2214,
      "beli": 2215,
      "ops": 2216,
      "ature": 2217,
      "By": 2218,
      "version": 2219,
      "ought": 2220,
      "Euro": 2221,
      "Co": 2222,
      "itary": 2223,
      "pect": 2224,
      "ulation": 2225,
      "chan": 2226,
      "mar": 2227,
      "hum": 2228,
      "mb": 2229,
      "person": 2230,
      "Div": 2231,
      "school": 2232,
      "195": 2233,
      "National": 2234,
      "expl": 2235,
      "Indi": 2236,
      "using": 2237,
      "24": 2238,
      "action": 2239,
      "There": 2240,
      "rown": 2241,
      "wind": 2242,
      "que": 2243,
      "River": 2244,
      "games": 2245,
      "ix": 2246,
      "Batt": 2247,
      "issu": 2248,
      "oute": 2249,
      "ral": 2250,
      "period": 2251,
      "thing": 2252,
      "best": 2253,
      "ung": 2254,
      "Sc": 2255,
      "We": 2256,
      "review": 2257,
      "French": 2258,
      "those": 2259,
      "bro": 2260,
      "make": 2261,
      "ched": 2262,
      "placed": 2263,
      "ilar": 2264,
      "ently": 2265,
      "aff": 2266,
      "ium": 2267,
      "family": 2268,
      "ove": 2269,
      "month": 2270,
      "Pr": 2271,
      "193": 2272,
      "When": 2273,
      "ext": 2274,
      "His": 2275,
      "City": 2276,
      "Gen": 2277,
      "oung": 2278,
      "Ge": 2279,
      "fan": 2280,
      "fac": 2281,
      "continued": 2282,
      "Europe": 2283,
      "26": 2284,
      "force": 2285,
      "flu": 2286,
      "thor": 2287,
      "stud": 2288,
      "former": 2289,
      "original": 2290,
      "sk": 2291,
      "class": 2292,
      "And": 2293,
      "Ad": 2294,
      "England": 2295,
      "round": 2296,
      "story": 2297,
      "aken": 2298,
      "Tr": 2299,
      "mid": 2300,
      "mag": 2301,
      "23": 2302,
      "came": 2303,
      "held": 2304,
      "ains": 2305,
      "role": 2306,
      "ampion": 2307,
      "iversity": 2308,
      "half": 2309,
      "still": 2310,
      "next": 2311,
      "stit": 2312,
      "real": 2313,
      "company": 2314,
      "gram": 2315,
      "colle": 2316,
      "ston": 2317,
      "move": 2318,
      "21": 2319,
      "sible": 2320,
      "2010": 2321,
      "fire": 2322,
      "put": 2323,
      "28": 2324,
      "lim": 2325,
      "ety": 2326,
      "addition": 2327,
      "tropical": 2328,
      "ences": 2329,
      "bar": 2330,
      "local": 2331,
      "say": 2332,
      "bert": 2333,
      "Pe": 2334,
      "fort": 2335,
      "video": 2336,
      "Division": 2337,
      "forman": 2338,
      "2008": 2339,
      "100": 2340,
      "few": 2341,
      "Church": 2342,
      "fel": 2343,
      "ier": 2344,
      "mp": 2345,
      "fact": 2346,
      "trad": 2347,
      "site": 2348,
      "ared": 2349,
      "often": 2350,
      "ze": 2351,
      "forces": 2352,
      "27": 2353,
      "ending": 2354,
      "2009": 2355,
      "ged": 2356,
      "wood": 2357,
      "init": 2358,
      "strong": 2359,
      "Or": 2360,
      "nar": 2361,
      "riend": 2362,
      "considered": 2363,
      "further": 2364,
      "iment": 2365,
      "draw": 2366,
      "mission": 2367,
      "fr": 2368,
      "mand": 2369,
      "aining": 2370,
      "player": 2371,
      "quar": 2372,
      "ense": 2373,
      "posed": 2374,
      "ps": 2375,
      "Li": 2376,
      "vo": 2377,
      "commun": 2378,
      "effect": 2379,
      "tract": 2380,
      "ctions": 2381,
      "performan": 2382,
      "ggest": 2383,
      "similar": 2384,
      "One": 2385,
      "Pro": 2386,
      "With": 2387,
      "struct": 2388,
      "29": 2389,
      "house": 2390,
      "ator": 2391,
      "ution": 2392,
      "suggest": 2393,
      "augh": 2394,
      "military": 2395,
      "Te": 2396,
      "days": 2397,
      "common": 2398,
      "tro": 2399,
      "take": 2400,
      "refer": 2401,
      "import": 2402,
      "2007": 2403,
      "members": 2404,
      "body": 2405,
      "22": 2406,
      "sit": 2407,
      "club": 2408,
      "night": 2409,
      "plan": 2410,
      "lor": 2411,
      "see": 2412,
      "Per": 2413,
      "without": 2414,
      "Inter": 2415,
      "urrican": 2416,
      "ox": 2417,
      "church": 2418,
      "chang": 2419,
      "alion": 2420,
      "different": 2421,
      "post": 2422,
      "craft": 2423,
      "larg": 2424,
      "fron": 2425,
      "pite": 2426,
      "imes": 2427,
      "State": 2428,
      "scen": 2429,
      "polit": 2430,
      "test": 2431,
      "Bar": 2432,
      "app": 2433,
      "mit": 2434,
      "cial": 2435,
      "flo": 2436,
      "among": 2437,
      "bur": 2438,
      "level": 2439,
      "recorded": 2440,
      "published": 2441,
      "you": 2442,
      "wide": 2443,
      "every": 2444,
      "capt": 2445,
      "sty": 2446,
      "ico": 2447,
      "written": 2448,
      "bas": 2449,
      "however": 2450,
      "ali": 2451,
      "eved": 2452,
      "Although": 2453,
      "invol": 2454,
      "respon": 2455,
      "served": 2456,
      "week": 2457,
      "stead": 2458,
      "Sci": 2459,
      "ering": 2460,
      "ified": 2461,
      "2011": 2462,
      "vol": 2463,
      "history": 2464,
      "Cor": 2465,
      "Australian": 2466,
      "lost": 2467,
      "Ed": 2468,
      "seven": 2469,
      "bruary": 2470,
      "February": 2471,
      "English": 2472,
      "scor": 2473,
      "ides": 2474,
      "went": 2475,
      "find": 2476,
      "covered": 2477,
      "Ser": 2478,
      "studi": 2479,
      "According": 2480,
      "moder": 2481,
      "successful": 2482,
      "Mo": 2483,
      "na": 2484,
      "itar": 2485,
      "ives": 2486,
      "direct": 2487,
      "Mis": 2488,
      "author": 2489,
      "aster": 2490,
      "2012": 2491,
      "Dy": 2492,
      "ided": 2493,
      "ford": 2494,
      "face": 2495,
      "ital": 2496,
      "ned": 2497,
      "2006": 2498,
      "gn": 2499,
      "total": 2500,
      "Char": 2501,
      "Comp": 2502,
      "foot": 2503,
      "ploy": 2504,
      "ney": 2505,
      "histor": 2506,
      "hold": 2507,
      "river": 2508,
      "divid": 2509,
      "graph": 2510,
      "particular": 2511,
      "songs": 2512,
      "ey": 2513,
      "ination": 2514,
      "become": 2515,
      "title": 2516,
      "cing": 2517,
      "tele": 2518,
      "gl": 2519,
      "prof": 2520,
      "white": 2521,
      "produced": 2522,
      "reported": 2523,
      "decl": 2524,
      "provid": 2525,
      "tour": 2526,
      "away": 2527,
      "having": 2528,
      "Australia": 2529,
      "comb": 2530,
      "gave": 2531,
      "ices": 2532,
      "close": 2533,
      "Har": 2534,
      "quad": 2535,
      "times": 2536,
      "Canad": 2537,
      "how": 2538,
      "production": 2539,
      "urricane": 2540,
      "Air": 2541,
      "lands": 2542,
      "ways": 2543,
      "release": 2544,
      "General": 2545,
      "ior": 2546,
      "ountain": 2547,
      "ably": 2548,
      "40": 2549,
      "Park": 2550,
      "friend": 2551,
      "Mich": 2552,
      "atic": 2553,
      "Cent": 2554,
      "rad": 2555,
      "ailed": 2556,
      "Port": 2557,
      "indu": 2558,
      "ones": 2559,
      "equ": 2560,
      "given": 2561,
      "Su": 2562,
      "ges": 2563,
      "mm": 2564,
      "making": 2565,
      "stated": 2566,
      "University": 2567,
      "ument": 2568,
      "signific": 2569,
      "career": 2570,
      "Phil": 2571,
      "pur": 2572,
      "stre": 2573,
      "League": 2574,
      "Min": 2575,
      "sure": 2576,
      "tell": 2577,
      "seen": 2578,
      "clear": 2579,
      "rap": 2580,
      "Geor": 2581,
      "inc": 2582,
      "represent": 2583,
      "These": 2584,
      "change": 2585,
      "omet": 2586,
      "never": 2587,
      "country": 2588,
      "Ang": 2589,
      "popular": 2590,
      "want": 2591,
      "beh": 2592,
      "iron": 2593,
      "too": 2594,
      "Rich": 2595,
      "developed": 2596,
      "hour": 2597,
      "influ": 2598,
      "To": 2599,
      "young": 2600,
      "itions": 2601,
      "include": 2602,
      "returned": 2603,
      "Ma": 2604,
      "Roman": 2605,
      "great": 2606,
      "look": 2607,
      "fun": 2608,
      "cus": 2609,
      "hip": 2610,
      "ama": 2611,
      "chn": 2612,
      "reached": 2613,
      "construction": 2614,
      "suff": 2615,
      "destroy": 2616,
      "net": 2617,
      "itive": 2618,
      "nd": 2619,
      "Reg": 2620,
      "xim": 2621,
      "search": 2622,
      "key": 2623,
      "critic": 2624,
      "ither": 2625,
      "across": 2626,
      "board": 2627,
      "compet": 2628,
      "front": 2629,
      "Pol": 2630,
      "amb": 2631,
      "bird": 2632,
      "William": 2633,
      "law": 2634,
      "agre": 2635,
      "population": 2636,
      "miles": 2637,
      "Mus": 2638,
      "aver": 2639,
      "ology": 2640,
      "range": 2641,
      "While": 2642,
      "consist": 2643,
      "father": 2644,
      "vict": 2645,
      "word": 2646,
      "2013": 2647,
      "Tw": 2648,
      "ivil": 2649,
      "announ": 2650,
      "gar": 2651,
      "theast": 2652,
      "Road": 2653,
      "building": 2654,
      "Japanese": 2655,
      "died": 2656,
      "program": 2657,
      "East": 2658,
      "children": 2659,
      "Ear": 2660,
      "intro": 2661,
      "depend": 2662,
      "control": 2663,
      "cult": 2664,
      "aren": 2665,
      "America": 2666,
      "tolo": 2667,
      "teen": 2668,
      "project": 2669,
      "significant": 2670,
      "BC": 2671,
      "should": 2672,
      "coming": 2673,
      "activ": 2674,
      "located": 2675,
      "els": 2676,
      "occur": 2677,
      "Scot": 2678,
      "lished": 2679,
      "fantry": 2680,
      "fle": 2681,
      "rent": 2682,
      "guns": 2683,
      "killed": 2684,
      "works": 2685,
      "aul": 2686,
      "omen": 2687,
      "ondon": 2688,
      "Vi": 2689,
      "ov": 2690,
      "soci": 2691,
      "Jack": 2692,
      "mor": 2693,
      "pond": 2694,
      "ring": 2695,
      "earli": 2696,
      "fight": 2697,
      "medi": 2698,
      "established": 2699,
      "London": 2700,
      "Ne": 2701,
      "Roy": 2702,
      "himself": 2703,
      "lay": 2704,
      "ances": 2705,
      "60": 2706,
      "bus": 2707,
      "190": 2708,
      "compos": 2709,
      "felt": 2710,
      "modern": 2711,
      "manag": 2712,
      "thought": 2713,
      "mix": 2714,
      "introdu": 2715,
      "Des": 2716,
      "Song": 2717,
      "pain": 2718,
      "iness": 2719,
      "ison": 2720,
      "tar": 2721,
      "ades": 2722,
      "Dav": 2723,
      "Sim": 2724,
      "reek": 2725,
      "aves": 2726,
      "full": 2727,
      "complete": 2728,
      "eight": 2729,
      "sound": 2730,
      "High": 2731,
      "antic": 2732,
      "writing": 2733,
      "Old": 2734,
      "Po": 2735,
      "ising": 2736,
      "room": 2737,
      "pression": 2738,
      "throughout": 2739,
      "igade": 2740,
      "prim": 2741,
      "County": 2742,
      "alth": 2743,
      "areas": 2744,
      "ait": 2745,
      "battle": 2746,
      "human": 2747,
      "good": 2748,
      "RA": 2749,
      "aign": 2750,
      "hor": 2751,
      "eder": 2752,
      "noted": 2753,
      "development": 2754,
      "arried": 2755,
      "appeared": 2756,
      "important": 2757,
      "Dylan": 2758,
      "started": 2759,
      "bit": 2760,
      "sum": 2761,
      "Sy": 2762,
      "uc": 2763,
      "ope": 2764,
      "black": 2765,
      "Black": 2766,
      "Ex": 2767,
      "ient": 2768,
      "chart": 2769,
      "need": 2770,
      "performed": 2771,
      "ked": 2772,
      "icult": 2773,
      "vest": 2774,
      "ago": 2775,
      "Ber": 2776,
      "lin": 2777,
      "ots": 2778,
      "pra": 2779,
      "Army": 2780,
      "scri": 2781,
      "various": 2782,
      "Wal": 2783,
      "ization": 2784,
      "rock": 2785,
      "remained": 2786,
      "feet": 2787,
      "rain": 2788,
      "ille": 2789,
      "omin": 2790,
      "Company": 2791,
      "television": 2792,
      "grad": 2793,
      "cil": 2794,
      "fem": 2795,
      "ug": 2796,
      "rew": 2797,
      "surv": 2798,
      "fig": 2799,
      "caused": 2800,
      "entolo": 2801,
      "typ": 2802,
      "Ire": 2803,
      "fav": 2804,
      "performance": 2805,
      "troops": 2806,
      "Scientolo": 2807,
      "techn": 2808,
      "appoint": 2809,
      "interest": 2810,
      "cir": 2811,
      "van": 2812,
      "heavy": 2813,
      "acy": 2814,
      "omb": 2815,
      "poem": 2816,
      "James": 2817,
      "sl": 2818,
      "peak": 2819,
      "others": 2820,
      "Du": 2821,
      "stone": 2822,
      "cru": 2823,
      "experi": 2824,
      "mph": 2825,
      "rul": 2826,
      "Ireland": 2827,
      "El": 2828,
      "ino": 2829,
      "ensive": 2830,
      "lect": 2831,
      "entire": 2832,
      "players": 2833,
      "style": 2834,
      "ero": 2835,
      "stant": 2836,
      "ull": 2837,
      "coast": 2838,
      "does": 2839,
      "mun": 2840,
      "taken": 2841,
      "istr": 2842,
      "gether": 2843,
      "buted": 2844,
      "created": 2845,
      "ability": 2846,
      "trave": 2847,
      "ampionship": 2848,
      "novel": 2849,
      "pair": 2850,
      "vill": 2851,
      "2005": 2852,
      "aj": 2853,
      "once": 2854,
      "begin": 2855,
      "Pal": 2856,
      "events": 2857,
      "born": 2858,
      "Stre": 2859,
      "formation": 2860,
      "burn": 2861,
      "relig": 2862,
      "ping": 2863,
      "sib": 2864,
      "quadron": 2865,
      "TV": 2866,
      "ological": 2867,
      "god": 2868,
      "abor": 2869,
      "political": 2870,
      "ively": 2871,
      "region": 2872,
      "San": 2873,
      "far": 2874,
      "ties": 2875,
      "enced": 2876,
      "dri": 2877,
      "lines": 2878,
      "ample": 2879,
      "bes": 2880,
      "ana": 2881,
      "asing": 2882,
      "bet": 2883,
      "idence": 2884,
      "estim": 2885,
      "followed": 2886,
      "member": 2887,
      "completed": 2888,
      "You": 2889,
      "nal": 2890,
      "live": 2891,
      "189": 2892,
      "So": 2893,
      "sex": 2894,
      "Cap": 2895,
      "Ham": 2896,
      "ues": 2897,
      "Battalion": 2898,
      "route": 2899,
      "era": 2900,
      "island": 2901,
      "odes": 2902,
      "announced": 2903,
      "mother": 2904,
      "meet": 2905,
      "campaign": 2906,
      "Mag": 2907,
      "ael": 2908,
      "exp": 2909,
      "exist": 2910,
      "added": 2911,
      "har": 2912,
      "cell": 2913,
      "least": 2914,
      "bel": 2915,
      "pred": 2916,
      "possible": 2917,
      "difficult": 2918,
      "base": 2919,
      "aly": 2920,
      "nu": 2921,
      "anim": 2922,
      "relation": 2923,
      "originally": 2924,
      "sw": 2925,
      "wall": 2926,
      "conne": 2927,
      "sif": 2928,
      "31": 2929,
      "Hor": 2930,
      "ality": 2931,
      "2nd": 2932,
      "But": 2933,
      "Mer": 2934,
      "host": 2935,
      "osaur": 2936,
      "arded": 2937,
      "Atl": 2938,
      "months": 2939,
      "Some": 2940,
      "2004": 2941,
      "loss": 2942,
      "ival": 2943,
      "broad": 2944,
      "cross": 2945,
      "saw": 2946,
      "ored": 2947,
      "ount": 2948,
      "associ": 2949,
      "southern": 2950,
      "Les": 2951,
      "mot": 2952,
      "ches": 2953,
      "uses": 2954,
      "break": 2955,
      "ban": 2956,
      "know": 2957,
      "special": 2958,
      "characters": 2959,
      "little": 2960,
      "pat": 2961,
      "tre": 2962,
      "uck": 2963,
      "termin": 2964,
      "cogn": 2965,
      "cop": 2966,
      "instead": 2967,
      "stage": 2968,
      "comment": 2969,
      "tor": 2970,
      "damage": 2971,
      "35": 2972,
      "ories": 2973,
      "section": 2974,
      "defe": 2975,
      "process": 2976,
      "aircraft": 2977,
      "decided": 2978,
      "tradition": 2979,
      "Royal": 2980,
      "script": 2981,
      "vert": 2982,
      "crew": 2983,
      "ho": 2984,
      "Care": 2985,
      "grow": 2986,
      "spir": 2987,
      "got": 2988,
      "sess": 2989,
      "voc": 2990,
      "current": 2991,
      "court": 2992,
      "lack": 2993,
      "nia": 2994,
      "behind": 2995,
      "Cr": 2996,
      "resident": 2997,
      "redu": 2998,
      "features": 2999,
      "case": 3000,
      "ible": 3001,
      "ique": 3002,
      "lam": 3003,
      "cycl": 3004,
      "eastern": 3005,
      "non": 3006,
      "names": 3007,
      "ids": 3008,
      "tempor": 3009,
      "Kingdom": 3010,
      "Ab": 3011,
      "va": 3012,
      "forced": 3013,
      "clos": 3014,
      "Town": 3015,
      "ses": 3016,
      "reli": 3017,
      "mas": 3018,
      "stat": 3019,
      "2003": 3020,
      "lled": 3021,
      "2015": 3022,
      "critics": 3023,
      "together": 3024,
      "cert": 3025,
      "Ke": 3026,
      "sen": 3027,
      "yard": 3028,
      "audi": 3029,
      "Two": 3030,
      "70": 3031,
      "Som": 3032,
      "da": 3033,
      "pie": 3034,
      "wife": 3035,
      "ports": 3036,
      "playing": 3037,
      "regular": 3038,
      "elect": 3039,
      "cause": 3040,
      "service": 3041,
      "Mor": 3042,
      "fif": 3043,
      "fourth": 3044,
      "80": 3045,
      "Dr": 3046,
      "Mex": 3047,
      "cup": 3048,
      "towards": 3049,
      "anti": 3050,
      "highway": 3051,
      "Sun": 3052,
      "recogn": 3053,
      "Street": 3054,
      "Day": 3055,
      "don": 3056,
      "either": 3057,
      "operations": 3058,
      "France": 3059,
      "Mont": 3060,
      "Scientology": 3061,
      "Str": 3062,
      "compan": 3063,
      "approach": 3064,
      "eventually": 3065,
      "aut": 3066,
      "upon": 3067,
      "igned": 3068,
      "opened": 3069,
      "NY": 3070,
      "Rep": 3071,
      "hit": 3072,
      "yards": 3073,
      "central": 3074,
      "scored": 3075,
      "David": 3076,
      "Mad": 3077,
      "eks": 3078,
      "impro": 3079,
      "aper": 3080,
      "rail": 3081,
      "icated": 3082,
      "separ": 3083,
      "finished": 3084,
      "subsequ": 3085,
      "Bill": 3086,
      "accept": 3087,
      "forms": 3088,
      "goal": 3089,
      "ready": 3090,
      "claimed": 3091,
      "almost": 3092,
      "ha": 3093,
      "ying": 3094,
      "individ": 3095,
      "ators": 3096,
      "ington": 3097,
      "Val": 3098,
      "dou": 3099,
      "employ": 3100,
      "hon": 3101,
      "commer": 3102,
      "northern": 3103,
      "azine": 3104,
      "profess": 3105,
      "hab": 3106,
      "ata": 3107,
      "assist": 3108,
      "cret": 3109,
      "Follow": 3110,
      "hurricane": 3111,
      "units": 3112,
      "points": 3113,
      "Wales": 3114,
      "dle": 3115,
      "sold": 3116,
      "stars": 3117,
      "ication": 3118,
      "condu": 3119,
      "proble": 3120,
      "shot": 3121,
      "directed": 3122,
      "featured": 3123,
      "western": 3124,
      "illa": 3125,
      "leading": 3126,
      "laun": 3127,
      "SA": 3128,
      "nat": 3129,
      "respect": 3130,
      "counter": 3131,
      "appearance": 3132,
      "ply": 3133,
      "ceed": 3134,
      "oted": 3135,
      "pho": 3136,
      "ends": 3137,
      "ald": 3138,
      "example": 3139,
      "joined": 3140,
      "Hill": 3141,
      "general": 3142,
      "500": 3143,
      "believed": 3144,
      "Following": 3145,
      "Other": 3146,
      "Paul": 3147,
      "term": 3148,
      "women": 3149,
      "aval": 3150,
      "brought": 3151,
      "Cup": 3152,
      "Fin": 3153,
      "ota": 3154,
      "Grand": 3155,
      "Carey": 3156,
      "inj": 3157,
      "concl": 3158,
      "winds": 3159,
      "Ze": 3160,
      "lower": 3161,
      "Hen": 3162,
      "mater": 3163,
      "reng": 3164,
      "allowed": 3165,
      "largest": 3166,
      "45": 3167,
      "Am": 3168,
      "Bel": 3169,
      "ane": 3170,
      "ken": 3171,
      "emy": 3172,
      "press": 3173,
      "tel": 3174,
      "plann": 3175,
      "provided": 3176,
      "God": 3177,
      "nine": 3178,
      "sour": 3179,
      "compl": 3180,
      "mean": 3181,
      "weeks": 3182,
      "rather": 3183,
      "iss": 3184,
      "flood": 3185,
      "Don": 3186,
      "Feder": 3187,
      "Jew": 3188,
      "ky": 3189,
      "ming": 3190,
      "sem": 3191,
      "ister": 3192,
      "opening": 3193,
      "Sar": 3194,
      "edit": 3195,
      "writer": 3196,
      "Brigade": 3197,
      "From": 3198,
      "Sw": 3199,
      "streng": 3200,
      "deli": 3201,
      "working": 3202,
      "director": 3203,
      "George": 3204,
      "75": 3205,
      "date": 3206,
      "hous": 3207,
      "cost": 3208,
      "langu": 3209,
      "Mi": 3210,
      "yn": 3211,
      "reve": 3212,
      "aland": 3213,
      "heel": 3214,
      "cul": 3215,
      "free": 3216,
      "contract": 3217,
      "tee": 3218,
      "Thom": 3219,
      "Robert": 3220,
      "fly": 3221,
      "tail": 3222,
      "ishing": 3223,
      "worked": 3224,
      "involved": 3225,
      "Gre": 3226,
      "Part": 3227,
      "civil": 3228,
      "foc": 3229,
      "ials": 3230,
      "scre": 3231,
      "cts": 3232,
      "188": 3233,
      "coll": 3234,
      "elements": 3235,
      "useum": 3236,
      "designed": 3237,
      "earlier": 3238,
      "My": 3239,
      "lear": 3240,
      "generally": 3241,
      "hours": 3242,
      "38": 3243,
      "atin": 3244,
      "hest": 3245,
      "meas": 3246,
      "help": 3247,
      "Mal": 3248,
      "hom": 3249,
      "leng": 3250,
      "Star": 3251,
      "International": 3252,
      "saying": 3253,
      "invest": 3254,
      "ape": 3255,
      "sia": 3256,
      "quick": 3257,
      "outside": 3258,
      "stry": 3259,
      "Command": 3260,
      "Indian": 3261,
      "wanted": 3262,
      "uk": 3263,
      "vin": 3264,
      "ville": 3265,
      "istic": 3266,
      "pract": 3267,
      "White": 3268,
      "cially": 3269,
      "replaced": 3270,
      "engine": 3271,
      "Music": 3272,
      "rid": 3273,
      "parts": 3274,
      "soon": 3275,
      "Dep": 3276,
      "Rus": 3277,
      "Route": 3278,
      "sea": 3279,
      "ida": 3280,
      "European": 3281,
      "prob": 3282,
      "avail": 3283,
      "soldi": 3284,
      "Best": 3285,
      "victory": 3286,
      "estimated": 3287,
      "Fir": 3288,
      "Hol": 3289,
      "Love": 3290,
      "NA": 3291,
      "Off": 3292,
      "ger": 3293,
      "uel": 3294,
      "bodi": 3295,
      "previously": 3296,
      "fre": 3297,
      "uation": 3298,
      "erous": 3299,
      "ential": 3300,
      "Island": 3301,
      "particularly": 3302,
      "Mark": 3303,
      "ault": 3304,
      "above": 3305,
      "Viet": 3306,
      "Navy": 3307,
      "mal": 3308,
      "metres": 3309,
      "Play": 3310,
      "Ho": 3311,
      "Ver": 3312,
      "drop": 3313,
      "iction": 3314,
      "length": 3315,
      "Game": 3316,
      "Qu": 3317,
      "thod": 3318,
      "ention": 3319,
      "inese": 3320,
      "Angel": 3321,
      "Most": 3322,
      "Pac": 3323,
      "mach": 3324,
      "ns": 3325,
      "seem": 3326,
      "ples": 3327,
      "mode": 3328,
      "Act": 3329,
      "Ir": 3330,
      "icted": 3331,
      "acc": 3332,
      "Chinese": 3333,
      "visit": 3334,
      "scene": 3335,
      "birds": 3336,
      "business": 3337,
      "praised": 3338,
      "House": 3339,
      "Red": 3340,
      "ius": 3341,
      "race": 3342,
      "sat": 3343,
      "ission": 3344,
      "unk": 3345,
      "ospit": 3346,
      "sip": 3347,
      "official": 3348,
      "Despite": 3349,
      "Fil": 3350,
      "nes": 3351,
      "past": 3352,
      "conom": 3353,
      "ublic": 3354,
      "90": 3355,
      "Oli": 3356,
      "ded": 3357,
      "ecut": 3358,
      "reason": 3359,
      "commit": 3360,
      "certain": 3361,
      "Kore": 3362,
      "Christian": 3363,
      "structure": 3364,
      "stop": 3365,
      "2014": 3366,
      "ordered": 3367,
      "standing": 3368,
      "Bra": 3369,
      "Rock": 3370,
      "station": 3371,
      "19th": 3372,
      "ocial": 3373,
      "passed": 3374,
      "1st": 3375,
      "Ha": 3376,
      "ula": 3377,
      "2001": 3378,
      "poet": 3379,
      "rang": 3380,
      "transfer": 3381,
      "appointed": 3382,
      "Em": 3383,
      "mult": 3384,
      "love": 3385,
      "increased": 3386,
      "liament": 3387,
      "inst": 3388,
      "maintain": 3389,
      "issue": 3390,
      "defeated": 3391,
      "Bay": 3392,
      "Flor": 3393,
      "los": 3394,
      "phas": 3395,
      "sis": 3396,
      "super": 3397,
      "type": 3398,
      "III": 3399,
      "bound": 3400,
      "cal": 3401,
      "taking": 3402,
      "threat": 3403,
      "ize": 3404,
      "Zealand": 3405,
      "Mac": 3406,
      "depression": 3407,
      "aint": 3408,
      "occup": 3409,
      "quest": 3410,
      "viol": 3411,
      "186": 3412,
      "ption": 3413,
      "pressed": 3414,
      "turned": 3415,
      "study": 3416,
      "Pri": 3417,
      "research": 3418,
      "aries": 3419,
      "185": 3420,
      "going": 3421,
      "Michael": 3422,
      "Ap": 3423,
      "err": 3424,
      "alter": 3425,
      "Championship": 3426,
      "contri": 3427,
      "flight": 3428,
      "Lesnar": 3429,
      "Tor": 3430,
      "hig": 3431,
      "aters": 3432,
      "argu": 3433,
      "deal": 3434,
      "oney": 3435,
      "condom": 3436,
      "portr": 3437,
      "Cam": 3438,
      "cern": 3439,
      "accoun": 3440,
      "sell": 3441,
      "evidence": 3442,
      "Britain": 3443,
      "Mexico": 3444,
      "pet": 3445,
      "whom": 3446,
      "poor": 3447,
      "positive": 3448,
      "remains": 3449,
      "manager": 3450,
      "bri": 3451,
      "ened": 3452,
      "center": 3453,
      "signed": 3454,
      "available": 3455,
      "Gal": 3456,
      "Hu": 3457,
      "hard": 3458,
      "rac": 3459,
      "comes": 3460,
      "McC": 3461,
      "First": 3462,
      "stay": 3463,
      "Creek": 3464,
      "tic": 3465,
      "extr": 3466,
      "bridge": 3467,
      "coach": 3468,
      "syn": 3469,
      "Atlantic": 3470,
      "highest": 3471,
      "bi": 3472,
      "ara": 3473,
      "army": 3474,
      "bell": 3475,
      "Dan": 3476,
      "Mary": 3477,
      "rd": 3478,
      "touch": 3479,
      "ranch": 3480,
      "likely": 3481,
      "football": 3482,
      "inn": 3483,
      "damaged": 3484,
      "establish": 3485,
      "quarter": 3486,
      "Que": 3487,
      "pan": 3488,
      "heav": 3489,
      "iving": 3490,
      "pool": 3491,
      "particip": 3492,
      "average": 3493,
      "female": 3494,
      "Pacific": 3495,
      "told": 3496,
      "arrived": 3497,
      "Hero": 3498,
      "Florida": 3499,
      "pi": 3500,
      "ita": 3501,
      "territ": 3502,
      "utes": 3503,
      "discus": 3504,
      "prepar": 3505,
      "interview": 3506,
      "ordan": 3507,
      "Hall": 3508,
      "bill": 3509,
      "arily": 3510,
      "itself": 3511,
      "School": 3512,
      "native": 3513,
      "aring": 3514,
      "lected": 3515,
      "transport": 3516,
      "graphy": 3517,
      "brother": 3518,
      "Richard": 3519,
      "36": 3520,
      "immedi": 3521,
      "lie": 3522,
      "surround": 3523,
      "asked": 3524,
      "hap": 3525,
      "forward": 3526,
      "Infantry": 3527,
      "2002": 3528,
      "prevent": 3529,
      "studio": 3530,
      "temporary": 3531,
      "Jordan": 3532,
      "ga": 3533,
      "here": 3534,
      "uz": 3535,
      "watch": 3536,
      "initially": 3537,
      "community": 3538,
      "Federer": 3539,
      "Thomas": 3540,
      "Cro": 3541,
      "mel": 3542,
      "recent": 3543,
      "usion": 3544,
      "erson": 3545,
      "specific": 3546,
      "limited": 3547,
      "Gold": 3548,
      "sch": 3549,
      "slow": 3550,
      "imin": 3551,
      "ounted": 3552,
      "despite": 3553,
      "Regiment": 3554,
      "Oper": 3555,
      "fit": 3556,
      "hib": 3557,
      "pected": 3558,
      "training": 3559,
      "sian": 3560,
      "execut": 3561,
      "somet": 3562,
      "respond": 3563,
      "Union": 3564,
      "ximately": 3565,
      "Olivi": 3566,
      "Sch": 3567,
      "econom": 3568,
      "give": 3569,
      "latter": 3570,
      "treat": 3571,
      "usually": 3572,
      "except": 3573,
      "tons": 3574,
      "Canada": 3575,
      "village": 3576,
      "pot": 3577,
      "thus": 3578,
      "enter": 3579,
      "lif": 3580,
      "whose": 3581,
      "mixed": 3582,
      "President": 3583,
      "gold": 3584,
      "lot": 3585,
      "sal": 3586,
      "aled": 3587,
      "already": 3588,
      "marked": 3589,
      "increasing": 3590,
      "AA": 3591,
      "Award": 3592,
      "Egy": 3593,
      "Vir": 3594,
      "states": 3595,
      "actions": 3596,
      "required": 3597,
      "Super": 3598,
      "probably": 3599,
      "Do": 3600,
      "secur": 3601,
      "ateg": 3602,
      "size": 3603,
      "2000": 3604,
      "Carol": 3605,
      "quarters": 3606,
      "agreed": 3607,
      "dol": 3608,
      "mass": 3609,
      "ament": 3610,
      "dead": 3611,
      "pread": 3612,
      "captured": 3613,
      "rate": 3614,
      "ti": 3615,
      "ila": 3616,
      "possib": 3617,
      "Under": 3618,
      "commission": 3619,
      "tries": 3620,
      "listed": 3621,
      "Battle": 3622,
      "Bur": 3623,
      "Mid": 3624,
      "nel": 3625,
      "vice": 3626,
      "text": 3627,
      "soldiers": 3628,
      "Tom": 3629,
      "rica": 3630,
      "cher": 3631,
      "ume": 3632,
      "aker": 3633,
      "ief": 3634,
      "colon": 3635,
      "fully": 3636,
      "capital": 3637,
      "police": 3638,
      "better": 3639,
      "Year": 3640,
      "hol": 3641,
      "mat": 3642,
      "mur": 3643,
      "debut": 3644,
      "print": 3645,
      "religious": 3646,
      "relationship": 3647,
      "Henry": 3648,
      "Times": 3649,
      "must": 3650,
      "ny": 3651,
      "defin": 3652,
      "That": 3653,
      "souri": 3654,
      "Missouri": 3655,
      "FA": 3656,
      "Later": 3657,
      "cit": 3658,
      "ray": 3659,
      "sus": 3660,
      "enough": 3661,
      "ilities": 3662,
      "remaining": 3663,
      "decision": 3664,
      "suggested": 3665,
      "beginning": 3666,
      "37": 3667,
      "Im": 3668,
      "defeat": 3669,
      "lies": 3670,
      "international": 3671,
      "stein": 3672,
      "winning": 3673,
      "Ben": 3674,
      "fund": 3675,
      "ference": 3676,
      "Span": 3677,
      "fleet": 3678,
      "introduced": 3679,
      "Bus": 3680,
      "Tur": 3681,
      "Tem": 3682,
      "failed": 3683,
      "pay": 3684,
      "according": 3685,
      "irth": 3686,
      "proper": 3687,
      "object": 3688,
      "nearly": 3689,
      "changes": 3690,
      "Pre": 3691,
      "aby": 3692,
      "bot": 3693,
      "daugh": 3694,
      "moving": 3695,
      "running": 3696,
      "Scott": 3697,
      "Hist": 3698,
      "abs": 3699,
      "division": 3700,
      "Tech": 3701,
      "Hel": 3702,
      "doc": 3703,
      "independ": 3704,
      "asy": 3705,
      "concern": 3706,
      "load": 3707,
      "Africa": 3708,
      "idea": 3709,
      "priv": 3710,
      "Peter": 3711,
      "might": 3712,
      "occas": 3713,
      "score": 3714,
      "goals": 3715,
      "commercial": 3716,
      "Cong": 3717,
      "Nero": 3718,
      "Sou": 3719,
      "bow": 3720,
      "mir": 3721,
      "tion": 3722,
      "staff": 3723,
      "ctive": 3724,
      "feel": 3725,
      "evol": 3726,
      "spent": 3727,
      "shows": 3728,
      "Philip": 3729,
      "circ": 3730,
      "Egypt": 3731,
      "oid": 3732,
      "illery": 3733,
      "Associ": 3734,
      "favor": 3735,
      "Great": 3736,
      "fut": 3737,
      "espe": 3738,
      "roll": 3739,
      "perform": 3740,
      "uded": 3741,
      "intended": 3742,
      "minor": 3743,
      "India": 3744,
      "Charles": 3745,
      "language": 3746,
      "especially": 3747,
      "Many": 3748,
      "Squadron": 3749,
      "league": 3750,
      "chap": 3751,
      "reser": 3752,
      "187": 3753,
      "space": 3754,
      "ronic": 3755,
      "supported": 3756,
      "approximately": 3757,
      "prior": 3758,
      "48": 3759,
      "fru": 3760,
      "woman": 3761,
      "sts": 3762,
      "keep": 3763,
      "discovered": 3764,
      "destroyed": 3765,
      "Irish": 3766,
      "Gl": 3767,
      "Tri": 3768,
      "bal": 3769,
      "squ": 3770,
      "exten": 3771,
      "overnor": 3772,
      "active": 3773,
      "Germany": 3774,
      "groups": 3775,
      "Spanish": 3776,
      "33": 3777,
      "kil": 3778,
      "spo": 3779,
      "ream": 3780,
      "atory": 3781,
      "uments": 3782,
      "fighting": 3783,
      "Je": 3784,
      "Res": 3785,
      "Vict": 3786,
      "nation": 3787,
      "sil": 3788,
      "educ": 3789,
      "conf": 3790,
      "mention": 3791,
      "northeast": 3792,
      "subject": 3793,
      "liter": 3794,
      "habit": 3795,
      "ami": 3796,
      "lyr": 3797,
      "idents": 3798,
      "box": 3799,
      "includes": 3800,
      "sometimes": 3801,
      "Cour": 3802,
      "Fort": 3803,
      "Jer": 3804,
      "frequ": 3805,
      "jour": 3806,
      "rup": 3807,
      "unit": 3808,
      "archae": 3809,
      "related": 3810,
      "runs": 3811,
      "reviews": 3812,
      "natural": 3813,
      "flow": 3814,
      "depart": 3815,
      "olic": 3816,
      "prog": 3817,
      "exam": 3818,
      "weight": 3819,
      "operation": 3820,
      "constructed": 3821,
      "larger": 3822,
      "Go": 3823,
      "ben": 3824,
      "vic": 3825,
      "ederal": 3826,
      "agon": 3827,
      "assigned": 3828,
      "positions": 3829,
      "magazine": 3830,
      "additional": 3831,
      "Ty": 3832,
      "food": 3833,
      "alo": 3834,
      "oud": 3835,
      "contr": 3836,
      "Another": 3837,
      "location": 3838,
      "recording": 3839,
      "whe": 3840,
      "orial": 3841,
      "provide": 3842,
      "phys": 3843,
      "Canadian": 3844,
      "ram": 3845,
      "secut": 3846,
      "office": 3847,
      "Mos": 3848,
      "social": 3849,
      "thick": 3850,
      "mond": 3851,
      "mostly": 3852,
      "Western": 3853,
      "Oldham": 3854,
      "39": 3855,
      "Brown": 3856,
      "Sing": 3857,
      "feature": 3858,
      "Colle": 3859,
      "fail": 3860,
      "male": 3861,
      "tur": 3862,
      "ander": 3863,
      "acqu": 3864,
      "artment": 3865,
      "pressure": 3866,
      "anna": 3867,
      "changed": 3868,
      "Med": 3869,
      "Mil": 3870,
      "dig": 3871,
      "fell": 3872,
      "ners": 3873,
      "yer": 3874,
      "itch": 3875,
      "amed": 3876,
      "ih": 3877,
      "imp": 3878,
      "cean": 3879,
      "Law": 3880,
      "Rac": 3881,
      "UK": 3882,
      "carried": 3883,
      "adop": 3884,
      "becoming": 3885,
      "deep": 3886,
      "guitar": 3887,
      "minutes": 3888,
      "Art": 3889,
      "sett": 3890,
      "Steven": 3891,
      "domin": 3892,
      "47": 3893,
      "Bal": 3894,
      "Light": 3895,
      "cou": 3896,
      "sport": 3897,
      "cele": 3898,
      "ishop": 3899,
      "notes": 3900,
      "request": 3901,
      "Fur": 3902,
      "Jin": 3903,
      "bon": 3904,
      "mountain": 3905,
      "andon": 3906,
      "lymp": 3907,
      "shown": 3908,
      "aven": 3909,
      "smaller": 3910,
      "radio": 3911,
      "subsequently": 3912,
      "Lu": 3913,
      "Rad": 3914,
      "Rose": 3915,
      "bs": 3916,
      "itz": 3917,
      "ranked": 3918,
      "rison": 3919,
      "future": 3920,
      "Olymp": 3921,
      "Since": 3922,
      "paren": 3923,
      "adap": 3924,
      "China": 3925,
      "Olivier": 3926,
      "birth": 3927,
      "fill": 3928,
      "wound": 3929,
      "entered": 3930,
      "vers": 3931,
      "selves": 3932,
      "relative": 3933,
      "broadcast": 3934,
      "ato": 3935,
      "appl": 3936,
      "lood": 3937,
      "plays": 3938,
      "president": 3939,
      "surface": 3940,
      "teams": 3941,
      "course": 3942,
      "response": 3943,
      "equip": 3944,
      "quickly": 3945,
      "49": 3946,
      "Spe": 3947,
      "Wheel": 3948,
      "die": 3949,
      "percent": 3950,
      "pose": 3951,
      "ministr": 3952,
      "Frank": 3953,
      "referred": 3954,
      "brief": 3955,
      "bad": 3956,
      "mic": 3957,
      "uals": 3958,
      "ency": 3959,
      "igan": 3960,
      "Head": 3961,
      "Jewish": 3962,
      "Over": 3963,
      "edy": 3964,
      "atives": 3965,
      "temper": 3966,
      "venue": 3967,
      "mith": 3968,
      "Billboard": 3969,
      "Victor": 3970,
      "Rh": 3971,
      "bio": 3972,
      "reme": 3973,
      "nest": 3974,
      "strict": 3975,
      "indic": 3976,
      "appears": 3977,
      "Guitar": 3978,
      "summer": 3979,
      "material": 3980,
      "Association": 3981,
      "Cath": 3982,
      "Sam": 3983,
      "Tour": 3984,
      "jud": 3985,
      "ta": 3986,
      "edge": 3987,
      "rein": 3988,
      "image": 3989,
      "peror": 3990,
      "via": 3991,
      "achi": 3992,
      "create": 3993,
      "1995": 3994,
      "sified": 3995,
      "closed": 3996,
      "fifth": 3997,
      "professional": 3998,
      "ospital": 3999,
      "Cal": 4000,
      "FI": 4001,
      "Lo": 4002,
      "thedr": 4003,
      "ases": 4004,
      "leaving": 4005,
      "ady": 4006,
      "aging": 4007,
      "apo": 4008,
      "minute": 4009,
      "Force": 4010,
      "aught": 4011,
      "problems": 4012,
      "Ale": 4013,
      "emb": 4014,
      "attacks": 4015,
      "attacked": 4016,
      "majority": 4017,
      "alifor": 4018,
      "Bob": 4019,
      "Mart": 4020,
      "hair": 4021,
      "makes": 4022,
      "speed": 4023,
      "1999": 4024,
      "ensity": 4025,
      "complex": 4026,
      "officers": 4027,
      "affic": 4028,
      "stream": 4029,
      "suffered": 4030,
      "launched": 4031,
      "400": 4032,
      "Bro": 4033,
      "Camp": 4034,
      "hou": 4035,
      "onto": 4036,
      "clas": 4037,
      "atest": 4038,
      "pring": 4039,
      "cient": 4040,
      "Manila": 4041,
      "rapid": 4042,
      "bomb": 4043,
      "withdraw": 4044,
      "themselves": 4045,
      "consider": 4046,
      "students": 4047,
      "76": 4048,
      "Del": 4049,
      "always": 4050,
      "suit": 4051,
      "emer": 4052,
      "artillery": 4053,
      "overall": 4054,
      "prison": 4055,
      "rael": 4056,
      "largely": 4057,
      "murder": 4058,
      "Califor": 4059,
      "Lit": 4060,
      "Latin": 4061,
      "tom": 4062,
      "primary": 4063,
      "32": 4064,
      "Gi": 4065,
      "wal": 4066,
      "demon": 4067,
      "igr": 4068,
      "confl": 4069,
      "concert": 4070,
      "shoot": 4071,
      "occurred": 4072,
      "screen": 4073,
      "cm": 4074,
      "zy": 4075,
      "plot": 4076,
      "upper": 4077,
      "contains": 4078,
      "Ital": 4079,
      "Council": 4080,
      "Virgin": 4081,
      "Ot": 4082,
      "Penn": 4083,
      "ously": 4084,
      "block": 4085,
      "bring": 4086,
      "films": 4087,
      "longer": 4088,
      "critical": 4089,
      "How": 4090,
      "Mr": 4091,
      "Sur": 4092,
      "nos": 4093,
      "1950": 4094,
      "portion": 4095,
      "boats": 4096,
      "jected": 4097,
      "scenes": 4098,
      "experience": 4099,
      "Wheeler": 4100,
      "thedral": 4101,
      "Awards": 4102,
      "La": 4103,
      "Sal": 4104,
      "coup": 4105,
      "dark": 4106,
      "fans": 4107,
      "gins": 4108,
      "Israel": 4109,
      "Ter": 4110,
      "bour": 4111,
      "ding": 4112,
      "job": 4113,
      "nomin": 4114,
      "lived": 4115,
      "election": 4116,
      "increase": 4117,
      "schol": 4118,
      "daughter": 4119,
      "Cer": 4120,
      "Os": 4121,
      "Wood": 4122,
      "abandon": 4123,
      "proposed": 4124,
      "traffic": 4125,
      "1998": 4126,
      "undred": 4127,
      "casual": 4128,
      "stitute": 4129,
      "Central": 4130,
      "investig": 4131,
      "purch": 4132,
      "anced": 4133,
      "ultim": 4134,
      "neg": 4135,
      "necess": 4136,
      "ept": 4137,
      "icket": 4138,
      "Common": 4139,
      "issued": 4140,
      "California": 4141,
      "Jose": 4142,
      "Pat": 4143,
      "send": 4144,
      "ites": 4145,
      "teach": 4146,
      "ulpt": 4147,
      "grant": 4148,
      "market": 4149,
      "commander": 4150,
      "movement": 4151,
      "mitted": 4152,
      "associated": 4153,
      "Croat": 4154,
      "Gul": 4155,
      "Land": 4156,
      "Mountain": 4157,
      "slight": 4158,
      "below": 4159,
      "gue": 4160,
      "settle": 4161,
      "voice": 4162,
      "osaurus": 4163,
      "status": 4164,
      "lyrics": 4165,
      "joy": 4166,
      "ker": 4167,
      "married": 4168,
      "money": 4169,
      "rat": 4170,
      "think": 4171,
      "removed": 4172,
      "agg": 4173,
      "party": 4174,
      "Haw": 4175,
      "Sen": 4176,
      "nature": 4177,
      "step": 4178,
      "ado": 4179,
      "chall": 4180,
      "exper": 4181,
      "earth": 4182,
      "meant": 4183,
      "centre": 4184,
      "sculpt": 4185,
      "observ": 4186,
      "numbers": 4187,
      "Brad": 4188,
      "effects": 4189,
      "Fore": 4190,
      "gas": 4191,
      "gir": 4192,
      "takes": 4193,
      "waters": 4194,
      "throw": 4195,
      "orm": 4196,
      "sey": 4197,
      "dev": 4198,
      "concept": 4199,
      "ulu": 4200,
      "stra": 4201,
      "bled": 4202,
      "serious": 4203,
      "Commission": 4204,
      "cyclone": 4205,
      "planned": 4206,
      "300": 4207,
      "Bu": 4208,
      "Not": 4209,
      "Sever": 4210,
      "gent": 4211,
      "ergy": 4212,
      "leave": 4213,
      "determin": 4214,
      "exc": 4215,
      "pole": 4216,
      "influence": 4217,
      "bodies": 4218,
      "private": 4219,
      "Lou": 4220,
      "Sol": 4221,
      "mom": 4222,
      "rare": 4223,
      "ining": 4224,
      "beat": 4225,
      "verse": 4226,
      "otion": 4227,
      "expected": 4228,
      "corpor": 4229,
      "2016": 4230,
      "ario": 4231,
      "musical": 4232,
      "legal": 4233,
      "Earth": 4234,
      "kin": 4235,
      "uter": 4236,
      "irt": 4237,
      "terms": 4238,
      "1930": 4239,
      "awarded": 4240,
      "African": 4241,
      "Northern": 4242,
      "personal": 4243,
      "directly": 4244,
      "Center": 4245,
      "morning": 4246,
      "Republic": 4247,
      "strength": 4248,
      "celebr": 4249,
      "3rd": 4250,
      "bury": 4251,
      "fa": 4252,
      "fast": 4253,
      "amount": 4254,
      "unable": 4255,
      "ulated": 4256,
      "arts": 4257,
      "20th": 4258,
      "double": 4259,
      "whether": 4260,
      "Rachel": 4261,
      "Lake": 4262,
      "hop": 4263,
      "twent": 4264,
      "finally": 4265,
      "cred": 4266,
      "Arab": 4267,
      "buildings": 4268,
      "Court": 4269,
      "34": 4270,
      "If": 4271,
      "Jim": 4272,
      "Lord": 4273,
      "bing": 4274,
      "kan": 4275,
      "pow": 4276,
      "insp": 4277,
      "infantry": 4278,
      "iser": 4279,
      "plant": 4280,
      "plans": 4281,
      "trade": 4282,
      "earned": 4283,
      "Station": 4284,
      "heads": 4285,
      "advance": 4286,
      "conducted": 4287,
      "meaning": 4288,
      "Boy": 4289,
      "big": 4290,
      "hus": 4291,
      "lers": 4292,
      "sched": 4293,
      "inent": 4294,
      "vie": 4295,
      "weap": 4296,
      "wealth": 4297,
      "stitut": 4298,
      "responsible": 4299,
      "commented": 4300,
      "companies": 4301,
      "9th": 4302,
      "MS": 4303,
      "Met": 4304,
      "yet": 4305,
      "living": 4306,
      "clo": 4307,
      "worth": 4308,
      "compared": 4309,
      "Record": 4310,
      "media": 4311,
      "arriage": 4312,
      "sequence": 4313,
      "competition": 4314,
      "piece": 4315,
      "Bul": 4316,
      "Bri": 4317,
      "ML": 4318,
      "Mill": 4319,
      "semb": 4320,
      "ellow": 4321,
      "ump": 4322,
      "affe": 4323,
      "iano": 4324,
      "Its": 4325,
      "raised": 4326,
      "aily": 4327,
      "Second": 4328,
      "giving": 4329,
      "Fle": 4330,
      "Tre": 4331,
      "Tex": 4332,
      "rout": 4333,
      "esh": 4334,
      "demand": 4335,
      "cting": 4336,
      "Studi": 4337,
      "offered": 4338,
      "discover": 4339,
      "advant": 4340,
      "done": 4341,
      "escap": 4342,
      "health": 4343,
      "forts": 4344,
      "deb": 4345,
      "resc": 4346,
      "Chic": 4347,
      "ifa": 4348,
      "presence": 4349,
      "method": 4350,
      "possess": 4351,
      "Arch": 4352,
      "newsp": 4353,
      "writers": 4354,
      "records": 4355,
      "episodes": 4356,
      "Jane": 4357,
      "46": 4358,
      "NC": 4359,
      "Ross": 4360,
      "Sto": 4361,
      "batter": 4362,
      "theme": 4363,
      "atre": 4364,
      "access": 4365,
      "actor": 4366,
      "Through": 4367,
      "archite": 4368,
      "syl": 4369,
      "150": 4370,
      "polic": 4371,
      "Sea": 4372,
      "attempted": 4373,
      "Michigan": 4374,
      "figure": 4375,
      "immediately": 4376,
      "Bow": 4377,
      "Kh": 4378,
      "Pen": 4379,
      "gain": 4380,
      "enon": 4381,
      "umb": 4382,
      "whole": 4383,
      "sons": 4384,
      "stories": 4385,
      "border": 4386,
      "industry": 4387,
      "Ca": 4388,
      "Che": 4389,
      "Tay": 4390,
      "Var": 4391,
      "hic": 4392,
      "park": 4393,
      "path": 4394,
      "vey": 4395,
      "olk": 4396,
      "umed": 4397,
      "boy": 4398,
      "weaken": 4399,
      "Three": 4400,
      "tellig": 4401,
      "activity": 4402,
      "Er": 4403,
      "attract": 4404,
      "selected": 4405,
      "helped": 4406,
      "books": 4407,
      "tracks": 4408,
      "Both": 4409,
      "portray": 4410,
      "mouth": 4411,
      "nis": 4412,
      "bey": 4413,
      "ipal": 4414,
      "anger": 4415,
      "starting": 4416,
      "battles": 4417,
      "allowing": 4418,
      "schools": 4419,
      "composed": 4420,
      "machine": 4421,
      "Just": 4422,
      "hundred": 4423,
      "tourn": 4424,
      "dem": 4425,
      "imm": 4426,
      "qual": 4427,
      "1996": 4428,
      "Enter": 4429,
      "ordin": 4430,
      "distin": 4431,
      "network": 4432,
      "individual": 4433,
      "houses": 4434,
      "Haifa": 4435,
      "65": 4436,
      "Mem": 4437,
      "Museum": 4438,
      "sides": 4439,
      "wing": 4440,
      "eding": 4441,
      "begins": 4442,
      "Bey": 4443,
      "continue": 4444,
      "nearby": 4445,
      "greater": 4446,
      "matches": 4447,
      "traditional": 4448,
      "Department": 4449,
      "Several": 4450,
      "Texas": 4451,
      "Chicago": 4452,
      "Ev": 4453,
      "bul": 4454,
      "crow": 4455,
      "ires": 4456,
      "pil": 4457,
      "really": 4458,
      "genus": 4459,
      "leaders": 4460,
      "carry": 4461,
      "battalion": 4462,
      "Parliament": 4463,
      "faced": 4464,
      "expand": 4465,
      "Stevens": 4466,
      "Big": 4467,
      "ises": 4468,
      "finan": 4469,
      "1993": 4470,
      "Christmas": 4471,
      "Corps": 4472,
      "target": 4473,
      "Taylor": 4474,
      "44": 4475,
      "Hurricane": 4476,
      "dro": 4477,
      "dated": 4478,
      "vement": 4479,
      "annual": 4480,
      "highly": 4481,
      "Catholic": 4482,
      "Der": 4483,
      "gal": 4484,
      "ging": 4485,
      "za": 4486,
      "án": 4487,
      "inside": 4488,
      "information": 4489,
      "distri": 4490,
      "iple": 4491,
      "1997": 4492,
      "orders": 4493,
      "Colon": 4494,
      "onym": 4495,
      "Philipp": 4496,
      "casualties": 4497,
      "Los": 4498,
      "Tropical": 4499,
      "dy": 4500,
      "spl": 4501,
      "tax": 4502,
      "thin": 4503,
      "env": 4504,
      "icts": 4505,
      "ils": 4506,
      "olf": 4507,
      "confir": 4508,
      "clad": 4509,
      "clim": 4510,
      "assault": 4511,
      "evac": 4512,
      "resulted": 4513,
      "greatest": 4514,
      "Galve": 4515,
      "College": 4516,
      "inspired": 4517,
      "sembly": 4518,
      "6th": 4519,
      "Fre": 4520,
      "Foot": 4521,
      "Young": 4522,
      "kind": 4523,
      "detail": 4524,
      "artist": 4525,
      "drum": 4526,
      "middle": 4527,
      "performances": 4528,
      "burg": 4529,
      "photo": 4530,
      "cat": 4531,
      "cam": 4532,
      "agan": 4533,
      "hero": 4534,
      "regard": 4535,
      "metal": 4536,
      "famil": 4537,
      "Club": 4538,
      "extended": 4539,
      "nucle": 4540,
      "things": 4541,
      "armed": 4542,
      "deploy": 4543,
      "ett": 4544,
      "berg": 4545,
      "log": 4546,
      "Acad": 4547,
      "situation": 4548,
      "Series": 4549,
      "culture": 4550,
      "gods": 4551,
      "touchdown": 4552,
      "Galveston": 4553,
      "Turn": 4554,
      "mist": 4555,
      "pul": 4556,
      "anal": 4557,
      "isl": 4558,
      "sets": 4559,
      "uries": 4560,
      "180": 4561,
      "something": 4562,
      "headquarters": 4563,
      "attempts": 4564,
      "eye": 4565,
      "figures": 4566,
      "deliver": 4567,
      "Emp": 4568,
      "core": 4569,
      "jun": 4570,
      "ki": 4571,
      "ores": 4572,
      "anks": 4573,
      "anta": 4574,
      "struck": 4575,
      "sole": 4576,
      "pondy": 4577,
      "audience": 4578,
      "Italian": 4579,
      "AI": 4580,
      "Out": 4581,
      "Tran": 4582,
      "cli": 4583,
      "naval": 4584,
      "ugu": 4585,
      "stating": 4586,
      "ada": 4587,
      "secret": 4588,
      "ester": 4589,
      "aware": 4590,
      "render": 4591,
      "numerous": 4592,
      "refused": 4593,
      "combat": 4594,
      "Georg": 4595,
      "needed": 4596,
      "vocals": 4597,
      "Dis": 4598,
      "Tenn": 4599,
      "pick": 4600,
      "aces": 4601,
      "mob": 4602,
      "iva": 4603,
      "acting": 4604,
      "rane": 4605,
      "severe": 4606,
      "services": 4607,
      "Group": 4608,
      "chester": 4609,
      "initial": 4610,
      "friends": 4611,
      "horse": 4612,
      "heavily": 4613,
      "Smith": 4614,
      "drew": 4615,
      "ene": 4616,
      "contemporary": 4617,
      "div": 4618,
      "shire": 4619,
      "intensity": 4620,
      "1991": 4621,
      "singer": 4622,
      "collection": 4623,
      "Major": 4624,
      "security": 4625,
      "78": 4626,
      "Are": 4627,
      "kes": 4628,
      "kick": 4629,
      "rum": 4630,
      "enjoy": 4631,
      "adium": 4632,
      "Their": 4633,
      "grand": 4634,
      "eway": 4635,
      "shell": 4636,
      "defend": 4637,
      "standard": 4638,
      "variety": 4639,
      "Sovi": 4640,
      "meeting": 4641,
      "separate": 4642,
      "Party": 4643,
      "document": 4644,
      "4th": 4645,
      "Jam": 4646,
      "Long": 4647,
      "Saint": 4648,
      "Villa": 4649,
      "Wel": 4650,
      "hu": 4651,
      "altar": 4652,
      "residents": 4653,
      "owned": 4654,
      "conditions": 4655,
      "invas": 4656,
      "northwest": 4657,
      "southeast": 4658,
      "issues": 4659,
      "declared": 4660,
      "Jackson": 4661,
      "Carolina": 4662,
      "Empire": 4663,
      "Ill": 4664,
      "Ram": 4665,
      "mile": 4666,
      "rich": 4667,
      "peace": 4668,
      "web": 4669,
      "1994": 4670,
      "viewers": 4671,
      "higher": 4672,
      "peaked": 4673,
      "source": 4674,
      "Alex": 4675,
      "slightly": 4676,
      "husband": 4677,
      "sylvan": 4678,
      "Fl": 4679,
      "Mat": 4680,
      "Nix": 4681,
      "Rob": 4682,
      "hill": 4683,
      "hood": 4684,
      "ón": 4685,
      "rem": 4686,
      "ocks": 4687,
      "izing": 4688,
      "Alice": 4689,
      "producer": 4690,
      "presented": 4691,
      "rule": 4692,
      "controver": 4693,
      "organized": 4694,
      "powerful": 4695,
      "ushed": 4696,
      "stitution": 4697,
      "divided": 4698,
      "words": 4699,
      "completely": 4700,
      "reduced": 4701,
      "respectively": 4702,
      "wounded": 4703,
      "Joseph": 4704,
      "Games": 4705,
      "Up": 4706,
      "bat": 4707,
      "bid": 4708,
      "eu": 4709,
      "uated": 4710,
      "rot": 4711,
      "award": 4712,
      "Polish": 4713,
      "types": 4714,
      "Operation": 4715,
      "BA": 4716,
      "Dire": 4717,
      "Lady": 4718,
      "pun": 4719,
      "sec": 4720,
      "offensive": 4721,
      "officer": 4722,
      "sixth": 4723,
      "says": 4724,
      "Somer": 4725,
      "Dj": 4726,
      "carri": 4727,
      "eve": 4728,
      "alle": 4729,
      "etr": 4730,
      "umn": 4731,
      "spect": 4732,
      "account": 4733,
      "dollar": 4734,
      "Little": 4735,
      "Otto": 4736,
      "CA": 4737,
      "Nations": 4738,
      "Sir": 4739,
      "Six": 4740,
      "cad": 4741,
      "iny": 4742,
      "iter": 4743,
      "itation": 4744,
      "omer": 4745,
      "estival": 4746,
      "means": 4747,
      "1992": 4748,
      "maxim": 4749,
      "missed": 4750,
      "combined": 4751,
      "Highway": 4752,
      "Dou": 4753,
      "Hum": 4754,
      "Time": 4755,
      "oo": 4756,
      "inch": 4757,
      "alty": 4758,
      "aspect": 4759,
      "itude": 4760,
      "chor": 4761,
      "sust": 4762,
      "perial": 4763,
      "Alkan": 4764,
      "Americ": 4765,
      "continues": 4766,
      "strial": 4767,
      "studies": 4768,
      "copies": 4769,
      "contrast": 4770,
      "ka": 4771,
      "marriage": 4772,
      "administr": 4773,
      "vehic": 4774,
      "boat": 4775,
      "elected": 4776,
      "strike": 4777,
      "Prince": 4778,
      "architect": 4779,
      "sylvania": 4780,
      "42": 4781,
      "55": 4782,
      "Four": 4783,
      "Gar": 4784,
      "Soci": 4785,
      "inches": 4786,
      "andid": 4787,
      "advis": 4788,
      "utch": 4789,
      "Chris": 4790,
      "ousand": 4791,
      "athan": 4792,
      "countries": 4793,
      "pedo": 4794,
      "asket": 4795,
      "distance": 4796,
      "rights": 4797,
      "levels": 4798,
      "widely": 4799,
      "concluded": 4800,
      "transferred": 4801,
      "education": 4802,
      "Nixon": 4803,
      "Bor": 4804,
      "Cross": 4805,
      "Liver": 4806,
      "Pit": 4807,
      "Wash": 4808,
      "cé": 4809,
      "gam": 4810,
      "wear": 4811,
      "isation": 4812,
      "ements": 4813,
      "managed": 4814,
      "actually": 4815,
      "portun": 4816,
      "address": 4817,
      "Paris": 4818,
      "territory": 4819,
      "Bol": 4820,
      "Hot": 4821,
      "thr": 4822,
      "anas": 4823,
      "ert": 4824,
      "symb": 4825,
      "struction": 4826,
      "Australians": 4827,
      "relief": 4828,
      "Queen": 4829,
      "Busch": 4830,
      "Fow": 4831,
      "Jul": 4832,
      "MA": 4833,
      "ience": 4834,
      "pal": 4835,
      "ancient": 4836,
      "toward": 4837,
      "heart": 4838,
      "adult": 4839,
      "urt": 4840,
      "bery": 4841,
      "annel": 4842,
      "effort": 4843,
      "describes": 4844,
      "Book": 4845,
      "Spain": 4846,
      "Early": 4847,
      "question": 4848,
      "extensive": 4849,
      "Mosley": 4850,
      "Virginia": 4851,
      "Louis": 4852,
      "Burn": 4853,
      "Civil": 4854,
      "Di": 4855,
      "Lan": 4856,
      "sense": 4857,
      "rect": 4858,
      "ications": 4859,
      "ression": 4860,
      "exhib": 4861,
      "asty": 4862,
      "strated": 4863,
      "attention": 4864,
      "calling": 4865,
      "1970": 4866,
      "defense": 4867,
      "Like": 4868,
      "rainfall": 4869,
      "sexual": 4870,
      "torpedo": 4871,
      "vocal": 4872,
      "revealed": 4873,
      "Film": 4874,
      "Football": 4875,
      "Washington": 4876,
      "5th": 4877,
      "Bon": 4878,
      "Of": 4879,
      "blood": 4880,
      "ease": 4881,
      "hi": 4882,
      "patter": 4883,
      "rear": 4884,
      "reign": 4885,
      "ador": 4886,
      "becomes": 4887,
      "mocr": 4888,
      "blue": 4889,
      "county": 4890,
      "ledge": 4891,
      "mium": 4892,
      "resulting": 4893,
      "hands": 4894,
      "primarily": 4895,
      "Green": 4896,
      "parents": 4897,
      "Somerset": 4898,
      "Liverpool": 4899,
      "chair": 4900,
      "resh": 4901,
      "opportun": 4902,
      "eves": 4903,
      "offer": 4904,
      "mainly": 4905,
      "mind": 4906,
      "1990": 4907,
      "produce": 4908,
      "efforts": 4909,
      "Because": 4910,
      "1942": 4911,
      "alongside": 4912,
      "designated": 4913,
      "accepted": 4914,
      "Southern": 4915,
      "96": 4916,
      "lic": 4917,
      "ufact": 4918,
      "today": 4919,
      "concent": 4920,
      "idian": 4921,
      "true": 4922,
      "quality": 4923,
      "preser": 4924,
      "scient": 4925,
      "suppl": 4926,
      "ification": 4927,
      "passing": 4928,
      "tower": 4929,
      "organization": 4930,
      "capture": 4931,
      "trees": 4932,
      "square": 4933,
      "Pennsylvania": 4934,
      "7th": 4935,
      "95": 4936,
      "Def": 4937,
      "squadron": 4938,
      "prop": 4939,
      "oured": 4940,
      "featuring": 4941,
      "initi": 4942,
      "Service": 4943,
      "activities": 4944,
      "advantage": 4945,
      "Fowler": 4946,
      "WW": 4947,
      "cis": 4948,
      "cers": 4949,
      "dition": 4950,
      "fish": 4951,
      "paid": 4952,
      "paper": 4953,
      "sail": 4954,
      "revol": 4955,
      "tru": 4956,
      "pret": 4957,
      "observed": 4958,
      "color": 4959,
      "Angeles": 4960,
      "impact": 4961,
      "affected": 4962,
      "Ever": 4963,
      "Live": 4964,
      "Naz": 4965,
      "piano": 4966,
      "rhy": 4967,
      "var": 4968,
      "incorpor": 4969,
      "replac": 4970,
      "oft": 4971,
      "visions": 4972,
      "identified": 4973,
      "broken": 4974,
      "scoring": 4975,
      "historical": 4976,
      "Minnes": 4977,
      "Captain": 4978,
      "practice": 4979,
      "Vietnam": 4980,
      "Minnesota": 4981,
      "Kent": 4982,
      "Ocean": 4983,
      "Water": 4984,
      "federal": 4985,
      "lb": 4986,
      "link": 4987,
      "sa": 4988,
      "repe": 4989,
      "prise": 4990,
      "ify": 4991,
      "serve": 4992,
      "showed": 4993,
      "vessel": 4994,
      "pitch": 4995,
      "represented": 4996,
      "ironclad": 4997,
      "arent": 4998,
      "ceeded": 4999,
      "Korean": 5000,
      "condoms": 5001,
      "Tod": 5002,
      "restor": 5003,
      "osen": 5004,
      "Storm": 5005,
      "rance": 5006,
      "scale": 5007,
      "seasons": 5008,
      "charge": 5009,
      "News": 5010,
      "tainment": 5011,
      "rossing": 5012,
      "cathedral": 5013,
      "extreme": 5014,
      "looking": 5015,
      "Scotland": 5016,
      "Miami": 5017,
      "evolution": 5018,
      "relatively": 5019,
      "Bint": 5020,
      "PA": 5021,
      "iation": 5022,
      "uan": 5023,
      "wit": 5024,
      "ena": 5025,
      "alleg": 5026,
      "roles": 5027,
      "university": 5028,
      "conv": 5029,
      "mole": 5030,
      "excl": 5031,
      "appearances": 5032,
      "sites": 5033,
      "apparent": 5034,
      "losing": 5035,
      "Histor": 5036,
      "fruit": 5037,
      "mentioned": 5038,
      "ultimately": 5039,
      "Bintulu": 5040,
      "Open": 5041,
      "Pop": 5042,
      "Prote": 5043,
      "Van": 5044,
      "brown": 5045,
      "oil": 5046,
      "zed": 5047,
      "enemy": 5048,
      "eval": 5049,
      "background": 5050,
      "Conf": 5051,
      "defence": 5052,
      "Mean": 5053,
      "environ": 5054,
      "Academy": 5055,
      "invasion": 5056,
      "Nico": 5057,
      "Tim": 5058,
      "ror": 5059,
      "vation": 5060,
      "oncé": 5061,
      "oph": 5062,
      "opin": 5063,
      "1920": 5064,
      "essa": 5065,
      "athlet": 5066,
      "write": 5067,
      "window": 5068,
      "influenced": 5069,
      "Russian": 5070,
      "excav": 5071,
      "twenty": 5072,
      "Beyoncé": 5073,
      "crowd": 5074,
      "Mog": 5075,
      "Pan": 5076,
      "instr": 5077,
      "delay": 5078,
      "expressed": 5079,
      "creation": 5080,
      "Though": 5081,
      "strugg": 5082,
      "cannot": 5083,
      "Manchester": 5084,
      "Meyer": 5085,
      "narrow": 5086,
      "typically": 5087,
      "Meridian": 5088,
      "surrounding": 5089,
      "conflict": 5090,
      "Hy": 5091,
      "spread": 5092,
      "thir": 5093,
      "thousand": 5094,
      "ont": 5095,
      "onic": 5096,
      "alone": 5097,
      "Indu": 5098,
      "aust": 5099,
      "dissip": 5100,
      "protest": 5101,
      "proteins": 5102,
      "Francis": 5103,
      "Anderson": 5104,
      "homes": 5105,
      "kilomet": 5106,
      "adopted": 5107,
      "Society": 5108,
      "Government": 5109,
      "cies": 5110,
      "beer": 5111,
      "conver": 5112,
      "attri": 5113,
      "bles": 5114,
      "forest": 5115,
      "doing": 5116,
      "Churchill": 5117,
      "floor": 5118,
      "successfully": 5119,
      "nuclear": 5120,
      "uzz": 5121,
      "Hawai": 5122,
      "Ottoman": 5123,
      "maximum": 5124,
      "Bet": 5125,
      "Field": 5126,
      "Kr": 5127,
      "cere": 5128,
      "eth": 5129,
      "rated": 5130,
      "recon": 5131,
      "recomm": 5132,
      "ols": 5133,
      "uten": 5134,
      "neigh": 5135,
      "artists": 5136,
      "avoid": 5137,
      "grass": 5138,
      "contact": 5139,
      "phen": 5140,
      "phil": 5141,
      "founded": 5142,
      "direction": 5143,
      "1986": 5144,
      "1941": 5145,
      "tried": 5146,
      "officials": 5147,
      "paint": 5148,
      "progress": 5149,
      "telligence": 5150,
      "64": 5151,
      "93": 5152,
      "Far": 5153,
      "bank": 5154,
      "repair": 5155,
      "actors": 5156,
      "guest": 5157,
      "phy": 5158,
      "thens": 5159,
      "legisl": 5160,
      "letter": 5161,
      "titled": 5162,
      "Richmond": 5163,
      "earliest": 5164,
      "commissioned": 5165,
      "Temple": 5166,
      "Welsh": 5167,
      "Adam": 5168,
      "Distr": 5169,
      "Fam": 5170,
      "Sum": 5171,
      "haw": 5172,
      "shore": 5173,
      "estic": 5174,
      "operated": 5175,
      "sister": 5176,
      "reports": 5177,
      "pursu": 5178,
      "abandoned": 5179,
      "necessary": 5180,
      "financial": 5181,
      "Soviet": 5182,
      "Sil": 5183,
      "Tik": 5184,
      "cities": 5185,
      "folk": 5186,
      "happ": 5187,
      "sac": 5188,
      "rev": 5189,
      "proved": 5190,
      "emphas": 5191,
      "manufact": 5192,
      "Thunder": 5193,
      "Marine": 5194,
      "officially": 5195,
      "Andrew": 5196,
      "achieved": 5197,
      "girl": 5198,
      "District": 5199,
      "Lie": 5200,
      "SR": 5201,
      "Tele": 5202,
      "Ul": 5203,
      "hang": 5204,
      "ona": 5205,
      "oppon": 5206,
      "Ann": 5207,
      "obtain": 5208,
      "Commun": 5209,
      "1988": 5210,
      "1940": 5211,
      "passes": 5212,
      "defensive": 5213,
      "prominent": 5214,
      "shortly": 5215,
      "structures": 5216,
      "currently": 5217,
      "pieces": 5218,
      "Men": 5219,
      "Ox": 5220,
      "ni": 5221,
      "your": 5222,
      "older": 5223,
      "otes": 5224,
      "movie": 5225,
      "shap": 5226,
      "attended": 5227,
      "specim": 5228,
      "Blue": 5229,
      "basis": 5230,
      "Missis": 5231,
      "street": 5232,
      "install": 5233,
      "nospondy": 5234,
      "newspaper": 5235,
      "Mississip": 5236,
      "600": 5237,
      "Dam": 5238,
      "Fred": 5239,
      "Home": 5240,
      "Kir": 5241,
      "hed": 5242,
      "winter": 5243,
      "alions": 5244,
      "oul": 5245,
      "ulations": 5246,
      "ems": 5247,
      "astic": 5248,
      "perman": 5249,
      "bution": 5250,
      "weak": 5251,
      "captain": 5252,
      "transl": 5253,
      "places": 5254,
      "broke": 5255,
      "function": 5256,
      "honor": 5257,
      "flooding": 5258,
      "focus": 5259,
      "Fleet": 5260,
      "Illino": 5261,
      "Mogad": 5262,
      "Ball": 5263,
      "Ka": 5264,
      "Kar": 5265,
      "Lock": 5266,
      "MD": 5267,
      "Ven": 5268,
      "Way": 5269,
      "candid": 5270,
      "rub": 5271,
      "wen": 5272,
      "xenon": 5273,
      "inner": 5274,
      "edition": 5275,
      "height": 5276,
      "mental": 5277,
      "Johnson": 5278,
      "Class": 5279,
      "dedicated": 5280,
      "Braa": 5281,
      "analys": 5282,
      "asketball": 5283,
      "Mississippi": 5284,
      "Cast": 5285,
      "farm": 5286,
      "reaction": 5287,
      "comedy": 5288,
      "shape": 5289,
      "artic": 5290,
      "mechan": 5291,
      "titles": 5292,
      "potential": 5293,
      "determined": 5294,
      "Avenue": 5295,
      "Down": 5296,
      "lap": 5297,
      "rig": 5298,
      "zo": 5299,
      "asc": 5300,
      "dete": 5301,
      "else": 5302,
      "plat": 5303,
      "landing": 5304,
      "inten": 5305,
      "Alli": 5306,
      "themes": 5307,
      "leader": 5308,
      "1960s": 5309,
      "Secret": 5310,
      "Edward": 5311,
      "authorities": 5312,
      "consisted": 5313,
      "sources": 5314,
      "straight": 5315,
      "Turner": 5316,
      "Tikal": 5317,
      "53": 5318,
      "56": 5319,
      "Cle": 5320,
      "Lar": 5321,
      "Si": 5322,
      "Ve": 5323,
      "ote": 5324,
      "san": 5325,
      "ening": 5326,
      "ental": 5327,
      "advert": 5328,
      "det": 5329,
      "imag": 5330,
      "consecut": 5331,
      "lives": 5332,
      "spot": 5333,
      "workers": 5334,
      "raid": 5335,
      "gency": 5336,
      "lane": 5337,
      "causing": 5338,
      "grew": 5339,
      "royal": 5340,
      "Week": 5341,
      "cultural": 5342,
      "phoon": 5343,
      "occasion": 5344,
      "couple": 5345,
      "tournament": 5346,
      "Den": 5347,
      "GA": 5348,
      "More": 5349,
      "mes": 5350,
      "mess": 5351,
      "ridge": 5352,
      "smo": 5353,
      "akapo": 5354,
      "ishu": 5355,
      "istics": 5356,
      "18th": 5357,
      "premi": 5358,
      "Austri": 5359,
      "door": 5360,
      "seconds": 5361,
      "Engine": 5362,
      "individuals": 5363,
      "Rhodes": 5364,
      "weapons": 5365,
      "Records": 5366,
      "Bond": 5367,
      "Nes": 5368,
      "Slam": 5369,
      "ares": 5370,
      "laid": 5371,
      "mounted": 5372,
      "rical": 5373,
      "wave": 5374,
      "arrest": 5375,
      "compound": 5376,
      "prec": 5377,
      "athus": 5378,
      "Short": 5379,
      "1980s": 5380,
      "roads": 5381,
      "buried": 5382,
      "Walpole": 5383,
      "Townsend": 5384,
      "possibly": 5385,
      "physical": 5386,
      "Rosebery": 5387,
      "ceremon": 5388,
      "Mogadishu": 5389,
      "Bost": 5390,
      "HMS": 5391,
      "Mah": 5392,
      "Mount": 5393,
      "Ob": 5394,
      "Sup": 5395,
      "VD": 5396,
      "ba": 5397,
      "dut": 5398,
      "gained": 5399,
      "rick": 5400,
      "sand": 5401,
      "sales": 5402,
      "tact": 5403,
      "inth": 5404,
      "champion": 5405,
      "images": 5406,
      "unknown": 5407,
      "conve": 5408,
      "fired": 5409,
      "ached": 5410,
      "content": 5411,
      "contain": 5412,
      "monument": 5413,
      "condition": 5414,
      "anning": 5415,
      "bute": 5416,
      "reaching": 5417,
      "cases": 5418,
      "claims": 5419,
      "society": 5420,
      "Simp": 5421,
      "Apple": 5422,
      "Middle": 5423,
      "Further": 5424,
      "schedul": 5425,
      "confirmed": 5426,
      "Americans": 5427,
      "Nicole": 5428,
      "Meyerbeer": 5429,
      "kilometres": 5430,
      "consecutive": 5431,
      "43": 5432,
      "Tessa": 5433,
      "hospital": 5434,
      "pup": 5435,
      "yl": 5436,
      "acad": 5437,
      "chief": 5438,
      "ura": 5439,
      "illu": 5440,
      "ardin": 5441,
      "princ": 5442,
      "minim": 5443,
      "follows": 5444,
      "suggests": 5445,
      "criticized": 5446,
      "rapidly": 5447,
      "BBC": 5448,
      "Eli": 5449,
      "Han": 5450,
      "Mort": 5451,
      "Yue": 5452,
      "governor": 5453,
      "kept": 5454,
      "encour": 5455,
      "lying": 5456,
      "union": 5457,
      "poly": 5458,
      "speak": 5459,
      "foreign": 5460,
      "visited": 5461,
      "helm": 5462,
      "1985": 5463,
      "1970s": 5464,
      "USA": 5465,
      "prompt": 5466,
      "killing": 5467,
      "Team": 5468,
      "Meanwhile": 5469,
      "41": 5470,
      "Due": 5471,
      "Raj": 5472,
      "dress": 5473,
      "fiction": 5474,
      "ole": 5475,
      "eds": 5476,
      "rose": 5477,
      "unte": 5478,
      "tery": 5479,
      "abama": 5480,
      "iana": 5481,
      "Alabama": 5482,
      "supply": 5483,
      "Shiva": 5484,
      "1944": 5485,
      "steam": 5486,
      "protein": 5487,
      "inkel": 5488,
      "management": 5489,
      "soundtrack": 5490,
      "walls": 5491,
      "connected": 5492,
      "collap": 5493,
      "equipment": 5494,
      "120": 5495,
      "Hait": 5496,
      "Max": 5497,
      "Ru": 5498,
      "ahead": 5499,
      "nom": 5500,
      "entrance": 5501,
      "otional": 5502,
      "umber": 5503,
      "Stone": 5504,
      "temple": 5505,
      "flank": 5506,
      "plement": 5507,
      "require": 5508,
      "Horse": 5509,
      "spirit": 5510,
      "Braathens": 5511,
      "98": 5512,
      "DVD": 5513,
      "Mel": 5514,
      "Post": 5515,
      "fied": 5516,
      "museum": 5517,
      "sought": 5518,
      "wild": 5519,
      "yellow": 5520,
      "energy": 5521,
      "tomb": 5522,
      "resol": 5523,
      "resist": 5524,
      "awa": 5525,
      "Democr": 5526,
      "Bridge": 5527,
      "narr": 5528,
      "projects": 5529,
      "freeway": 5530,
      "battleship": 5531,
      "Philippines": 5532,
      "sustained": 5533,
      "Illinois": 5534,
      "Finkel": 5535,
      "Gall": 5536,
      "Night": 5537,
      "Sor": 5538,
      "eigh": 5539,
      "fought": 5540,
      "spring": 5541,
      "tun": 5542,
      "debuted": 5543,
      "opposed": 5544,
      "emperor": 5545,
      "outs": 5546,
      "landfall": 5547,
      "disease": 5548,
      "weather": 5549,
      "newly": 5550,
      "lock": 5551,
      "promoted": 5552,
      "castle": 5553,
      "frag": 5554,
      "planet": 5555,
      "graphic": 5556,
      "Portugu": 5557,
      "bitt": 5558,
      "experienced": 5559,
      "Finkelstein": 5560,
      "51": 5561,
      "AF": 5562,
      "Bre": 5563,
      "Dev": 5564,
      "Fox": 5565,
      "Mass": 5566,
      "Rol": 5567,
      "Tu": 5568,
      "UN": 5569,
      "cu": 5570,
      "ec": 5571,
      "arms": 5572,
      "ingu": 5573,
      "itor": 5574,
      "adel": 5575,
      "chosen": 5576,
      "shif": 5577,
      "ours": 5578,
      "loy": 5579,
      "regions": 5580,
      "ologist": 5581,
      "simply": 5582,
      "pitched": 5583,
      "join": 5584,
      "ushing": 5585,
      "reference": 5586,
      "authority": 5587,
      "behav": 5588,
      "suffic": 5589,
      "Eastern": 5590,
      "measure": 5591,
      "extra": 5592,
      "economic": 5593,
      "Portuguese": 5594,
      "Cra": 5595,
      "Op": 5596,
      "gs": 5597,
      "decor": 5598,
      "twice": 5599,
      "science": 5600,
      "Assembly": 5601,
      "albums": 5602,
      "trial": 5603,
      "1964": 5604,
      "returning": 5605,
      "famous": 5606,
      "domestic": 5607,
      "advanced": 5608,
      "student": 5609,
      "holds": 5610,
      "Valley": 5611,
      "multiple": 5612,
      "prepared": 5613,
      "journal": 5614,
      "victim": 5615,
      "granted": 5616,
      "moment": 5617,
      "onymous": 5618,
      "AD": 5619,
      "Each": 5620,
      "catch": 5621,
      "sports": 5622,
      "vince": 5623,
      "theless": 5624,
      "ange": 5625,
      "stood": 5626,
      "aling": 5627,
      "ented": 5628,
      "neut": 5629,
      "brigade": 5630,
      "finish": 5631,
      "normal": 5632,
      "letters": 5633,
      "controlled": 5634,
      "growing": 5635,
      "employed": 5636,
      "seems": 5637,
      "benef": 5638,
      "nominated": 5639,
      "utenant": 5640,
      "Even": 5641,
      "Tint": 5642,
      "Zhou": 5643,
      "iced": 5644,
      "beaut": 5645,
      "unique": 5646,
      "oppos": 5647,
      "share": 5648,
      "containing": 5649,
      "therefore": 5650,
      "1987": 5651,
      "Fey": 5652,
      "Clark": 5653,
      "versions": 5654,
      "stones": 5655,
      "teenth": 5656,
      "dropped": 5657,
      "poetry": 5658,
      "occupied": 5659,
      "Olympic": 5660,
      "Sat": 5661,
      "TC": 5662,
      "kg": 5663,
      "amph": 5664,
      "beach": 5665,
      "urban": 5666,
      "ender": 5667,
      "orses": 5668,
      "1947": 5669,
      "starts": 5670,
      "depth": 5671,
      "explained": 5672,
      "injury": 5673,
      "flying": 5674,
      "negative": 5675,
      "settlement": 5676,
      "Boston": 5677,
      "Tintin": 5678,
      "Fer": 5679,
      "Ken": 5680,
      "Ly": 5681,
      "Rome": 5682,
      "SP": 5683,
      "dates": 5684,
      "mast": 5685,
      "master": 5686,
      "py": 5687,
      "sn": 5688,
      "yan": 5689,
      "thur": 5690,
      "asure": 5691,
      "usual": 5692,
      "acks": 5693,
      "note": 5694,
      "Argent": 5695,
      "vised": 5696,
      "filmed": 5697,
      "council": 5698,
      "calls": 5699,
      "historian": 5700,
      "maintained": 5701,
      "Varanas": 5702,
      "Varanasi": 5703,
      "Good": 5704,
      "Oda": 5705,
      "ao": 5706,
      "belong": 5707,
      "ola": 5708,
      "agement": 5709,
      "rival": 5710,
      "mosp": 5711,
      "Independ": 5712,
      "Only": 5713,
      "writes": 5714,
      "Before": 5715,
      "1984": 5716,
      "1972": 5717,
      "km2": 5718,
      "fields": 5719,
      "Addition": 5720,
      "knowledge": 5721,
      "growth": 5722,
      "Among": 5723,
      "argued": 5724,
      "independent": 5725,
      "classified": 5726,
      "Ceres": 5727,
      "website": 5728,
      "Nesbitt": 5729,
      "Asia": 5730,
      "Bir": 5731,
      "Eva": 5732,
      "Pet": 5733,
      "govern": 5734,
      "iers": 5735,
      "oth": 5736,
      "pict": 5737,
      "rating": 5738,
      "tank": 5739,
      "tanks": 5740,
      "rejected": 5741,
      "atops": 5742,
      "roof": 5743,
      "seas": 5744,
      "championship": 5745,
      "trail": 5746,
      "emic": 5747,
      "exped": 5748,
      "disp": 5749,
      "news": 5750,
      "setting": 5751,
      "1989": 5752,
      "supporting": 5753,
      "personnel": 5754,
      "incident": 5755,
      "religion": 5756,
      "problem": 5757,
      "Torres": 5758,
      "Odaen": 5759,
      "130": 5760,
      "Jon": 5761,
      "Mur": 5762,
      "NL": 5763,
      "Sky": 5764,
      "fat": 5765,
      "ya": 5766,
      "yle": 5767,
      "acing": 5768,
      "imony": 5769,
      "Champion": 5770,
      "assass": 5771,
      "attend": 5772,
      "desc": 5773,
      "icks": 5774,
      "retired": 5775,
      "medical": 5776,
      "animal": 5777,
      "Sarnia": 5778,
      "happen": 5779,
      "increasingly": 5780,
      "temperature": 5781,
      "families": 5782,
      "Odaenathus": 5783,
      "66": 5784,
      "CD": 5785,
      "Dar": 5786,
      "Dream": 5787,
      "Fant": 5788,
      "Jour": 5789,
      "bud": 5790,
      "mort": 5791,
      "iting": 5792,
      "seg": 5793,
      "tex": 5794,
      "umes": 5795,
      "ounder": 5796,
      "propos": 5797,
      "train": 5798,
      "odon": 5799,
      "perfect": 5800,
      "achie": 5801,
      "Arthur": 5802,
      "Once": 5803,
      "insula": 5804,
      "headed": 5805,
      "marks": 5806,
      "results": 5807,
      "Wilhelm": 5808,
      "travel": 5809,
      "Palest": 5810,
      "collabor": 5811,
      "selling": 5812,
      "haps": 5813,
      "bottom": 5814,
      "frequently": 5815,
      "Forest": 5816,
      "Oxford": 5817,
      "Jup": 5818,
      "Lew": 5819,
      "Tru": 5820,
      "dan": 5821,
      "glo": 5822,
      "kakapo": 5823,
      "matter": 5824,
      "rise": 5825,
      "sli": 5826,
      "inem": 5827,
      "arrang": 5828,
      "chance": 5829,
      "auth": 5830,
      "ranged": 5831,
      "views": 5832,
      "Conference": 5833,
      "battalions": 5834,
      "sky": 5835,
      "Admir": 5836,
      "Minister": 5837,
      "graded": 5838,
      "DuMont": 5839,
      "Office": 5840,
      "Gulf": 5841,
      "8th": 5842,
      "IV": 5843,
      "Iron": 5844,
      "lav": 5845,
      "rab": 5846,
      "thew": 5847,
      "resem": 5848,
      "isol": 5849,
      "iments": 5850,
      "strate": 5851,
      "creating": 5852,
      "aired": 5853,
      "flag": 5854,
      "1969": 5855,
      "borough": 5856,
      "Isa": 5857,
      "believe": 5858,
      "ovic": 5859,
      "drive": 5860,
      "strengthen": 5861,
      "challeng": 5862,
      "weakened": 5863,
      "cadmium": 5864,
      "scheduled": 5865,
      "85": 5866,
      "Ban": 5867,
      "Cre": 5868,
      "Dun": 5869,
      "Dutch": 5870,
      "FE": 5871,
      "Line": 5872,
      "cited": 5873,
      "fung": 5874,
      "encounter": 5875,
      "convent": 5876,
      "rif": 5877,
      "herself": 5878,
      "compar": 5879,
      "Italy": 5880,
      "finals": 5881,
      "izes": 5882,
      "singles": 5883,
      "element": 5884,
      "paralle": 5885,
      "ideas": 5886,
      "azz": 5887,
      "serving": 5888,
      "1960": 5889,
      "reflect": 5890,
      "Airport": 5891,
      "agreement": 5892,
      "System": 5893,
      "entirely": 5894,
      "subsequent": 5895,
      "synthe": 5896,
      "Scottish": 5897,
      "policy": 5898,
      "Allied": 5899,
      "62": 5900,
      "Dest": 5901,
      "Oma": 5902,
      "Sub": 5903,
      "kare": 5904,
      "heard": 5905,
      "accompan": 5906,
      "contest": 5907,
      "contained": 5908,
      "disc": 5909,
      "colony": 5910,
      "singing": 5911,
      "Constant": 5912,
      "value": 5913,
      "solo": 5914,
      "wooden": 5915,
      "Origin": 5916,
      "favour": 5917,
      "senior": 5918,
      "contributed": 5919,
      "participated": 5920,
      "Helms": 5921,
      "failure": 5922,
      "battery": 5923,
      "Baby": 5924,
      "Dom": 5925,
      "Greek": 5926,
      "IS": 5927,
      "Lis": 5928,
      "NH": 5929,
      "Writ": 5930,
      "aer": 5931,
      "bishop": 5932,
      "cust": 5933,
      "dream": 5934,
      "stro": 5935,
      "chose": 5936,
      "deg": 5937,
      "deck": 5938,
      "agent": 5939,
      "iding": 5940,
      "Institute": 5941,
      "Innis": 5942,
      "trap": 5943,
      "quake": 5944,
      "aved": 5945,
      "firm": 5946,
      "temnospondy": 5947,
      "southwest": 5948,
      "allows": 5949,
      "belief": 5950,
      "seventh": 5951,
      "popularity": 5952,
      "significantly": 5953,
      "improve": 5954,
      "PlayStation": 5955,
      "Jeff": 5956,
      "Victoria": 5957,
      "witness": 5958,
      "shaped": 5959,
      "Jupiter": 5960,
      "Omaha": 5961,
      "CE": 5962,
      "Cy": 5963,
      "Lin": 5964,
      "Rog": 5965,
      "basketball": 5966,
      "dyn": 5967,
      "fox": 5968,
      "gather": 5969,
      "march": 5970,
      "nic": 5971,
      "stages": 5972,
      "Stan": 5973,
      "guard": 5974,
      "1990s": 5975,
      "submar": 5976,
      "capable": 5977,
      "Williams": 5978,
      "animals": 5979,
      "Horn": 5980,
      "phase": 5981,
      "innings": 5982,
      "responded": 5983,
      "filled": 5984,
      "Bowl": 5985,
      "Ath": 5986,
      "Bas": 5987,
      "ERA": 5988,
      "Gil": 5989,
      "Lester": 5990,
      "Ten": 5991,
      "ech": 5992,
      "labor": 5993,
      "iring": 5994,
      "crete": 5995,
      "Anth": 5996,
      "phia": 5997,
      "regarded": 5998,
      "simple": 5999,
      "advent": 6000,
      "ski": 6001,
      "college": 6002,
      "commonly": 6003,
      "losses": 6004,
      "recognized": 6005,
      "McCall": 6006,
      "Congress": 6007,
      "adelphia": 6008,
      "77": 6009,
      "Bishop": 6010,
      "Hart": 6011,
      "Mu": 6012,
      "Rif": 6013,
      "iro": 6014,
      "rey": 6015,
      "lection": 6016,
      "ressive": 6017,
      "oren": 6018,
      "clean": 6019,
      "Form": 6020,
      "systems": 6021,
      "distingu": 6022,
      "Perón": 6023,
      "Mike": 6024,
      "supplies": 6025,
      "analysis": 6026,
      "94": 6027,
      "Gord": 6028,
      "Imag": 6029,
      "Mic": 6030,
      "Rih": 6031,
      "cot": 6032,
      "fresh": 6033,
      "ii": 6034,
      "map": 6035,
      "sun": 6036,
      "ua": 6037,
      "virt": 6038,
      "atmosp": 6039,
      "stations": 6040,
      "itan": 6041,
      "semi": 6042,
      "wides": 6043,
      "ria": 6044,
      "aine": 6045,
      "1918": 6046,
      "acts": 6047,
      "engaged": 6048,
      "1981": 6049,
      "ashion": 6050,
      "Cardiff": 6051,
      "risk": 6052,
      "Pho": 6053,
      "collected": 6054,
      "apping": 6055,
      "declined": 6056,
      "issance": 6057,
      "model": 6058,
      "Egyptian": 6059,
      "briefly": 6060,
      "scholar": 6061,
      "purchased": 6062,
      "remn": 6063,
      "Rihanna": 6064,
      "700": 6065,
      "Bank": 6066,
      "Gard": 6067,
      "Mounted": 6068,
      "Never": 6069,
      "Press": 6070,
      "RE": 6071,
      "fict": 6072,
      "til": 6073,
      "zer": 6074,
      "theory": 6075,
      "oms": 6076,
      "aret": 6077,
      "negot": 6078,
      "udd": 6079,
      "rence": 6080,
      "ickets": 6081,
      "160": 6082,
      "choice": 6083,
      "publication": 6084,
      "green": 6085,
      "deaths": 6086,
      "Cole": 6087,
      "People": 6088,
      "effective": 6089,
      "historic": 6090,
      "painting": 6091,
      "poems": 6092,
      "patro": 6093,
      "Swed": 6094,
      "Malay": 6095,
      "multi": 6096,
      "Daniel": 6097,
      "recently": 6098,
      "slowly": 6099,
      "property": 6100,
      "Martin": 6101,
      "Lieutenant": 6102,
      "budget": 6103,
      "Fu": 6104,
      "Governor": 6105,
      "fal": 6106,
      "fair": 6107,
      "hur": 6108,
      "edar": 6109,
      "agric": 6110,
      "timore": 6111,
      "ansas": 6112,
      "brary": 6113,
      "ween": 6114,
      "coal": 6115,
      "highlight": 6116,
      "secondary": 6117,
      "publish": 6118,
      "17th": 6119,
      "1965": 6120,
      "hydro": 6121,
      "gives": 6122,
      "turns": 6123,
      "facilities": 6124,
      "holding": 6125,
      "eyes": 6126,
      "layer": 6127,
      "Hamels": 6128,
      "focused": 6129,
      "Baltimore": 6130,
      "beyond": 6131,
      "expanded": 6132,
      "Djed": 6133,
      "aspects": 6134,
      "degree": 6135,
      "agricult": 6136,
      "800": 6137,
      "Gir": 6138,
      "Greg": 6139,
      "Ros": 6140,
      "Revolution": 6141,
      "crop": 6142,
      "han": 6143,
      "horses": 6144,
      "ju": 6145,
      "knot": 6146,
      "rine": 6147,
      "acres": 6148,
      "seat": 6149,
      "oldest": 6150,
      "ays": 6151,
      "district": 6152,
      "trou": 6153,
      "Child": 6154,
      "auto": 6155,
      "Also": 6156,
      "1943": 6157,
      "steel": 6158,
      "worldwide": 6159,
      "frame": 6160,
      "responsib": 6161,
      "Philadelphia": 6162,
      "McCart": 6163,
      "executive": 6164,
      "treatment": 6165,
      "Premi": 6166,
      "Croatia": 6167,
      "Entertainment": 6168,
      "Gordon": 6169,
      "Djedkare": 6170,
      "Fall": 6171,
      "Ron": 6172,
      "Well": 6173,
      "daily": 6174,
      "eas": 6175,
      "pack": 6176,
      "sens": 6177,
      "atop": 6178,
      "esc": 6179,
      "owners": 6180,
      "elled": 6181,
      "crimin": 6182,
      "Leg": 6183,
      "passeng": 6184,
      "protection": 6185,
      "armor": 6186,
      "Coast": 6187,
      "missions": 6188,
      "introduction": 6189,
      "technique": 6190,
      "existing": 6191,
      "billion": 6192,
      "Today": 6193,
      "Between": 6194,
      "Summer": 6195,
      "71": 6196,
      "Band": 6197,
      "Hib": 6198,
      "Rail": 6199,
      "Vide": 6200,
      "crossing": 6201,
      "dance": 6202,
      "fare": 6203,
      "hall": 6204,
      "males": 6205,
      "tip": 6206,
      "table": 6207,
      "uate": 6208,
      "wait": 6209,
      "repl": 6210,
      "sections": 6211,
      "illo": 6212,
      "notable": 6213,
      "awards": 6214,
      "sions": 6215,
      "Album": 6216,
      "roughly": 6217,
      "arrival": 6218,
      "1968": 6219,
      "decades": 6220,
      "Steve": 6221,
      "turning": 6222,
      "finds": 6223,
      "improved": 6224,
      "launch": 6225,
      "Imperial": 6226,
      "negoti": 6227,
      "54": 6228,
      "AR": 6229,
      "Bart": 6230,
      "Festival": 6231,
      "Mong": 6232,
      "Mend": 6233,
      "Native": 6234,
      "OT": 6235,
      "Oh": 6236,
      "Sus": 6237,
      "ito": 6238,
      "sul": 6239,
      "stable": 6240,
      "stret": 6241,
      "icial": 6242,
      "aded": 6243,
      "urb": 6244,
      "del": 6245,
      "compr": 6246,
      "modi": 6247,
      "prot": 6248,
      "actress": 6249,
      "udes": 6250,
      "iful": 6251,
      "awn": 6252,
      "computer": 6253,
      "presents": 6254,
      "display": 6255,
      "Commit": 6256,
      "count": 6257,
      "viewed": 6258,
      "parliament": 6259,
      "trip": 6260,
      "developing": 6261,
      "iversary": 6262,
      "finding": 6263,
      "RAAF": 6264,
      "gradually": 6265,
      "cells": 6266,
      "Final": 6267,
      "possibility": 6268,
      "literature": 6269,
      "Throughout": 6270,
      "converted": 6271,
      "Applewhite": 6272,
      "110": 6273,
      "Ali": 6274,
      "Five": 6275,
      "Vill": 6276,
      "ras": 6277,
      "tree": 6278,
      "von": 6279,
      "inscript": 6280,
      "onom": 6281,
      "outer": 6282,
      "acher": 6283,
      "ulate": 6284,
      "neck": 6285,
      "aka": 6286,
      "aste": 6287,
      "izations": 6288,
      "Arm": 6289,
      "visual": 6290,
      "filming": 6291,
      "12th": 6292,
      "1971": 6293,
      "restaur": 6294,
      "protect": 6295,
      "explos": 6296,
      "Andy": 6297,
      "fellow": 6298,
      "volunte": 6299,
      "SAFE": 6300,
      "stopped": 6301,
      "Turk": 6302,
      "1950s": 6303,
      "Commonwealth": 6304,
      "Area": 6305,
      "philos": 6306,
      "widespread": 6307,
      "58": 6308,
      "69": 6309,
      "Fish": 6310,
      "UB": 6311,
      "egg": 6312,
      "ía": 6313,
      "intelligence": 6314,
      "arian": 6315,
      "begun": 6316,
      "lywood": 6317,
      "concrete": 6318,
      "1914": 6319,
      "plain": 6320,
      "abo": 6321,
      "neither": 6322,
      "prefer": 6323,
      "centuries": 6324,
      "cool": 6325,
      "draft": 6326,
      "adding": 6327,
      "receiving": 6328,
      "promotion": 6329,
      "breeding": 6330,
      "tells": 6331,
      "burns": 6332,
      "Belg": 6333,
      "planning": 6334,
      "accident": 6335,
      "silver": 6336,
      "reinforce": 6337,
      "1930s": 6338,
      "delivered": 6339,
      "pattern": 6340,
      "WWE": 6341,
      "61": 6342,
      "Abu": 6343,
      "Hung": 6344,
      "Nich": 6345,
      "Row": 6346,
      "Upon": 6347,
      "Will": 6348,
      "Xe": 6349,
      "din": 6350,
      "fant": 6351,
      "mut": 6352,
      "mate": 6353,
      "nav": 6354,
      "pound": 6355,
      "sort": 6356,
      "save": 6357,
      "ardi": 6358,
      "iled": 6359,
      "ider": 6360,
      "rian": 6361,
      "acted": 6362,
      "End": 6363,
      "dram": 6364,
      "producers": 6365,
      "kills": 6366,
      "lasted": 6367,
      "pitcher": 6368,
      "1939": 6369,
      "drawn": 6370,
      "volume": 6371,
      "rivers": 6372,
      "rooms": 6373,
      "females": 6374,
      "dominated": 6375,
      "distinct": 6376,
      "Lewis": 6377,
      "72": 6378,
      "Broad": 6379,
      "Crit": 6380,
      "Domin": 6381,
      "Mir": 6382,
      "Rod": 6383,
      "gro": 6384,
      "gest": 6385,
      "remo": 6386,
      "recru": 6387,
      "deities": 6388,
      "Theatre": 6389,
      "convin": 6390,
      "ager": 6391,
      "elimin": 6392,
      "assy": 6393,
      "anything": 6394,
      "What": 6395,
      "Brig": 6396,
      "purpose": 6397,
      "ruled": 6398,
      "Magazine": 6399,
      "escape": 6400,
      "vehicles": 6401,
      "exclus": 6402,
      "accompanied": 6403,
      "Athlet": 6404,
      "59": 6405,
      "Dod": 6406,
      "Hell": 6407,
      "IG": 6408,
      "Ret": 6409,
      "Wall": 6410,
      "dog": 6411,
      "hired": 6412,
      "ji": 6413,
      "mine": 6414,
      "tin": 6415,
      "tav": 6416,
      "decre": 6417,
      "mod": 6418,
      "guan": 6419,
      "substant": 6420,
      "trying": 6421,
      "perior": 6422,
      "serves": 6423,
      "1975": 6424,
      "Columb": 6425,
      "massive": 6426,
      "learned": 6427,
      "violence": 6428,
      "Cambodi": 6429,
      "colonial": 6430,
      "adapted": 6431,
      "sculpture": 6432,
      "faith": 6433,
      "paintings": 6434,
      "Ari": 6435,
      "Cardin": 6436,
      "DS": 6437,
      "FC": 6438,
      "NBA": 6439,
      "Nathan": 6440,
      "bought": 6441,
      "dry": 6442,
      "fuel": 6443,
      "ancy": 6444,
      "atus": 6445,
      "shop": 6446,
      "Ind": 6447,
      "twel": 6448,
      "strateg": 6449,
      "afety": 6450,
      "nothing": 6451,
      "anned": 6452,
      "goes": 6453,
      "charges": 6454,
      "1980": 6455,
      "opera": 6456,
      "borne": 6457,
      "Juan": 6458,
      "campus": 6459,
      "Barrow": 6460,
      "combination": 6461,
      "existence": 6462,
      "crossed": 6463,
      "Keats": 6464,
      "adapt": 6465,
      "junction": 6466,
      "Dougl": 6467,
      "fictional": 6468,
      "Friend": 6469,
      "Jes": 6470,
      "Kers": 6471,
      "Mario": 6472,
      "Wind": 6473,
      "branch": 6474,
      "cance": 6475,
      "tack": 6476,
      "anth": 6477,
      "amber": 6478,
      "olis": 6479,
      "ceme": 6480,
      "uma": 6481,
      "ighter": 6482,
      "exer": 6483,
      "expen": 6484,
      "perhaps": 6485,
      "kee": 6486,
      "cricket": 6487,
      "angers": 6488,
      "visible": 6489,
      "underground": 6490,
      "1946": 6491,
      "1966": 6492,
      "protected": 6493,
      "Board": 6494,
      "closely": 6495,
      "surviv": 6496,
      "survived": 6497,
      "reasons": 6498,
      "independence": 6499,
      "Colonel": 6500,
      "convoy": 6501,
      "Video": 6502,
      "81": 6503,
      "Base": 6504,
      "Cold": 6505,
      "MTV": 6506,
      "Ol": 6507,
      "bone": 6508,
      "bass": 6509,
      "data": 6510,
      "wed": 6511,
      "enge": 6512,
      "accur": 6513,
      "conspir": 6514,
      "1915": 6515,
      "forming": 6516,
      "scar": 6517,
      "intersection": 6518,
      "Lee": 6519,
      "mush": 6520,
      "covering": 6521,
      "1945": 6522,
      "Islands": 6523,
      "Color": 6524,
      "aurus": 6525,
      "Project": 6526,
      "importance": 6527,
      "provides": 6528,
      "consists": 6529,
      "Walter": 6530,
      "defined": 6531,
      "susp": 6532,
      "performing": 6533,
      "shooting": 6534,
      "secure": 6535,
      "89": 6536,
      "Hal": 6537,
      "Hard": 6538,
      "Low": 6539,
      "Ray": 6540,
      "UTC": 6541,
      "bin": 6542,
      "dating": 6543,
      "gri": 6544,
      "ko": 6545,
      "nur": 6546,
      "psy": 6547,
      "tall": 6548,
      "zone": 6549,
      "inte": 6550,
      "store": 6551,
      "univers": 6552,
      "constant": 6553,
      "ried": 6554,
      "etic": 6555,
      "1916": 6556,
      "Instead": 6557,
      "tra": 6558,
      "Chap": 6559,
      "attached": 6560,
      "airport": 6561,
      "symp": 6562,
      "capac": 6563,
      "missing": 6564,
      "didn": 6565,
      "commanded": 6566,
      "humans": 6567,
      "faces": 6568,
      "skin": 6569,
      "storyline": 6570,
      "involvement": 6571,
      "decline": 6572,
      "programs": 6573,
      "Songs": 6574,
      "namese": 6575,
      "Vietnamese": 6576,
      "archaeological": 6577,
      "cougar": 6578,
      "Studios": 6579,
      "enjoyed": 6580,
      "Committee": 6581,
      "Crown": 6582,
      "Nat": 6583,
      "Public": 6584,
      "Sm": 6585,
      "fashion": 6586,
      "jack": 6587,
      "nie": 6588,
      "sin": 6589,
      "infr": 6590,
      "onna": 6591,
      "reput": 6592,
      "remix": 6593,
      "isers": 6594,
      "items": 6595,
      "hem": 6596,
      "leaves": 6597,
      "accompl": 6598,
      "why": 6599,
      "ctors": 6600,
      "oting": 6601,
      "mann": 6602,
      "worship": 6603,
      "landed": 6604,
      "brid": 6605,
      "Arts": 6606,
      "drama": 6607,
      "longest": 6608,
      "Bru": 6609,
      "1973": 6610,
      "1967": 6611,
      "evening": 6612,
      "Liber": 6613,
      "criticism": 6614,
      "consisting": 6615,
      "surviving": 6616,
      "satis": 6617,
      "committee": 6618,
      "repeated": 6619,
      "athletes": 6620,
      "Family": 6621,
      "temnospondyls": 6622,
      "Mendes": 6623,
      "79": 6624,
      "Cub": 6625,
      "Haven": 6626,
      "Loc": 6627,
      "Ridge": 6628,
      "categ": 6629,
      "caught": 6630,
      "nell": 6631,
      "rural": 6632,
      "tend": 6633,
      "vac": 6634,
      "wr": 6635,
      "wan": 6636,
      "wart": 6637,
      "wins": 6638,
      "enic": 6639,
      "arc": 6640,
      "assem": 6641,
      "lys": 6642,
      "eving": 6643,
      "aug": 6644,
      "preced": 6645,
      "interchange": 6646,
      "anny": 6647,
      "miner": 6648,
      "Leon": 6649,
      "helic": 6650,
      "1978": 6651,
      "decade": 6652,
      "strip": 6653,
      "composition": 6654,
      "motion": 6655,
      "editor": 6656,
      "Commander": 6657,
      "credited": 6658,
      "nucleus": 6659,
      "deployed": 6660,
      "Nichol": 6661,
      "Douglas": 6662,
      "Kershaw": 6663,
      "250": 6664,
      "52": 6665,
      "fix": 6666,
      "iqu": 6667,
      "inspir": 6668,
      "islands": 6669,
      "usal": 6670,
      "elli": 6671,
      "ries": 6672,
      "ette": 6673,
      "ounts": 6674,
      "aked": 6675,
      "antimony": 6676,
      "oking": 6677,
      "bra": 6678,
      "renamed": 6679,
      "interior": 6680,
      "locations": 6681,
      "appeal": 6682,
      "Joe": 6683,
      "16th": 6684,
      "1976": 6685,
      "getting": 6686,
      "grapher": 6687,
      "Space": 6688,
      "clubs": 6689,
      "naissance": 6690,
      "glass": 6691,
      "Muslim": 6692,
      "Braz": 6693,
      "Golden": 6694,
      "settlers": 6695,
      "split": 6696,
      "opportunity": 6697,
      "dissipated": 6698,
      "permanent": 6699,
      "Shortly": 6700,
      "Mun": 6701,
      "Nick": 6702,
      "Sa": 6703,
      "Sound": 6704,
      "fold": 6705,
      "ued": 6706,
      "inhabit": 6707,
      "rever": 6708,
      "orn": 6709,
      "iles": 6710,
      "aced": 6711,
      "sector": 6712,
      "rie": 6713,
      "1919": 6714,
      "1917": 6715,
      "evil": 6716,
      "intend": 6717,
      "weet": 6718,
      "myth": 6719,
      "populations": 6720,
      "servation": 6721,
      "Marines": 6722,
      "invited": 6723,
      "willing": 6724,
      "joint": 6725,
      "1952": 6726,
      "doub": 6727,
      "digital": 6728,
      "routes": 6729,
      "pilot": 6730,
      "details": 6731,
      "Thunderbirds": 6732,
      "Kil": 6733,
      "Snow": 6734,
      "gi": 6735,
      "knew": 6736,
      "wish": 6737,
      "wise": 6738,
      "wrest": 6739,
      "āda": 6740,
      "stal": 6741,
      "entially": 6742,
      "lyn": 6743,
      "pled": 6744,
      "mos": 6745,
      "derived": 6746,
      "ivity": 6747,
      "Stadium": 6748,
      "correct": 6749,
      "supposed": 6750,
      "arib": 6751,
      "1974": 6752,
      "imeter": 6753,
      "sentence": 6754,
      "providing": 6755,
      "association": 6756,
      "Donald": 6757,
      "establishment": 6758,
      "applied": 6759,
      "regarding": 6760,
      "symbol": 6761,
      "truth": 6762,
      "convection": 6763,
      "amphib": 6764,
      "Additionally": 6765,
      "Premier": 6766,
      "Bern": 6767,
      "Rick": 6768,
      "Squ": 6769,
      "athe": 6770,
      "cake": 6771,
      "mere": 6772,
      "oke": 6773,
      "pse": 6774,
      "inity": 6775,
      "replace": 6776,
      "stances": 6777,
      "andy": 6778,
      "isy": 6779,
      "entering": 6780,
      "ads": 6781,
      "conference": 6782,
      "opposition": 6783,
      "moves": 6784,
      "dies": 6785,
      "shared": 6786,
      "compon": 6787,
      "pty": 6788,
      "noon": 6789,
      "speaking": 6790,
      "rows": 6791,
      "producing": 6792,
      "surrender": 6793,
      "Rox": 6794,
      "storms": 6795,
      "succeeded": 6796,
      "Marsh": 6797,
      "depicted": 6798,
      "explor": 6799,
      "churches": 6800,
      "greatly": 6801,
      "technology": 6802,
      "coastal": 6803,
      "session": 6804,
      "economy": 6805,
      "citing": 6806,
      "chapel": 6807,
      "reserve": 6808,
      "rupt": 6809,
      "Director": 6810,
      "administration": 6811,
      "Bono": 6812,
      "article": 6813,
      "Crazy": 6814,
      "authors": 6815,
      "knots": 6816,
      "protagon": 6817,
      "Turkish": 6818,
      "Aer": 6819,
      "Bly": 6820,
      "Chel": 6821,
      "Es": 6822,
      "Jay": 6823,
      "Jones": 6824,
      "Late": 6825,
      "Master": 6826,
      "SS": 6827,
      "Vol": 6828,
      "Ye": 6829,
      "tied": 6830,
      "youth": 6831,
      "intr": 6832,
      "apers": 6833,
      "grave": 6834,
      "Chief": 6835,
      "firing": 6836,
      "bling": 6837,
      "weigh": 6838,
      "finishing": 6839,
      "shel": 6840,
      "fles": 6841,
      "ublin": 6842,
      "Beck": 6843,
      "1982": 6844,
      "appearing": 6845,
      "remainder": 6846,
      "1979": 6847,
      "successor": 6848,
      "appropri": 6849,
      "breaking": 6850,
      "1936": 6851,
      "classic": 6852,
      "Within": 6853,
      "looked": 6854,
      "cruiser": 6855,
      "sification": 6856,
      "About": 6857,
      "certified": 6858,
      "Doctor": 6859,
      "Type": 6860,
      "acquired": 6861,
      "considerable": 6862,
      "replacement": 6863,
      "Colorado": 6864,
      "Ak": 6865,
      "CO": 6866,
      "EC": 6867,
      "Jun": 6868,
      "Raf": 6869,
      "Santa": 6870,
      "ias": 6871,
      "atures": 6872,
      "acon": 6873,
      "amy": 6874,
      "uration": 6875,
      "forcing": 6876,
      "agen": 6877,
      "plum": 6878,
      "divisions": 6879,
      "oked": 6880,
      "minist": 6881,
      "regiment": 6882,
      "eleven": 6883,
      "1948": 6884,
      "receive": 6885,
      "facing": 6886,
      "Science": 6887,
      "Charlie": 6888,
      "historians": 6889,
      "Butler": 6890,
      "assistance": 6891,
      "Hollywood": 6892,
      "History": 6893,
      "concerns": 6894,
      "Radio": 6895,
      "micro": 6896,
      "dynasty": 6897,
      "Anthony": 6898,
      "IGN": 6899,
      "helicop": 6900,
      "82": 6901,
      "Cru": 6902,
      "Dublin": 6903,
      "Kang": 6904,
      "Pers": 6905,
      "Vis": 6906,
      "WA": 6907,
      "Wrest": 6908,
      "jam": 6909,
      "lings": 6910,
      "pin": 6911,
      "wel": 6912,
      "eda": 6913,
      "edom": 6914,
      "ati": 6915,
      "ilton": 6916,
      "acid": 6917,
      "ading": 6918,
      "channel": 6919,
      "ceived": 6920,
      "appre": 6921,
      "comic": 6922,
      "dub": 6923,
      "ifying": 6924,
      "correspond": 6925,
      "attle": 6926,
      "brick": 6927,
      "Anton": 6928,
      "spons": 6929,
      "speech": 6930,
      "Albert": 6931,
      "ropium": 6932,
      "Attor": 6933,
      "1963": 6934,
      "depict": 6935,
      "solid": 6936,
      "Boise": 6937,
      "sequently": 6938,
      "prede": 6939,
      "Emperor": 6940,
      "funding": 6941,
      "powers": 6942,
      "Evita": 6943,
      "happy": 6944,
      "Brazil": 6945,
      "Blythe": 6946,
      "87": 6947,
      "Ay": 6948,
      "Ash": 6949,
      "Back": 6950,
      "Bell": 6951,
      "Ko": 6952,
      "Oreg": 6953,
      "Test": 6954,
      "iar": 6955,
      "mical": 6956,
      "sight": 6957,
      "ule": 6958,
      "uff": 6959,
      "yo": 6960,
      "restr": 6961,
      "arranged": 6962,
      "bels": 6963,
      "sud": 6964,
      "formal": 6965,
      "phone": 6966,
      "10th": 6967,
      "Maria": 6968,
      "attacking": 6969,
      "controll": 6970,
      "baseball": 6971,
      "electric": 6972,
      "Sunday": 6973,
      "flights": 6974,
      "races": 6975,
      "Howard": 6976,
      "scholars": 6977,
      "Croatian": 6978,
      "experiment": 6979,
      "Brian": 6980,
      "ánh": 6981,
      "ranean": 6982,
      "controversi": 6983,
      "chorus": 6984,
      "achieve": 6985,
      "Attorney": 6986,
      "Oregon": 6987,
      "BS": 6988,
      "Fel": 6989,
      "Free": 6990,
      "Jurch": 6991,
      "Kn": 6992,
      "Top": 6993,
      "franch": 6994,
      "hun": 6995,
      "yson": 6996,
      "ori": 6997,
      "imet": 6998,
      "agree": 6999,
      "ully": 7000,
      "ateur": 7001,
      "exact": 7002,
      "ameter": 7003,
      "pregn": 7004,
      "Alan": 7005,
      "foundation": 7006,
      "downtown": 7007,
      "download": 7008,
      "leads": 7009,
      "statement": 7010,
      "11th": 7011,
      "towns": 7012,
      "denied": 7013,
      "1953": 7014,
      "Liu": 7015,
      "plane": 7016,
      "seeing": 7017,
      "typical": 7018,
      "technical": 7019,
      "motor": 7020,
      "teeth": 7021,
      "MacLe": 7022,
      "watched": 7023,
      "igration": 7024,
      "Tennyson": 7025,
      "Jamal": 7026,
      "Alexander": 7027,
      "opinion": 7028,
      "occasionally": 7029,
      "Age": 7030,
      "Carib": 7031,
      "Homer": 7032,
      "Ira": 7033,
      "Jain": 7034,
      "Ner": 7035,
      "Pa": 7036,
      "Wy": 7037,
      "Wat": 7038,
      "ds": 7039,
      "dict": 7040,
      "hen": 7041,
      "hope": 7042,
      "task": 7043,
      "vary": 7044,
      "ini": 7045,
      "institut": 7046,
      "stock": 7047,
      "asks": 7048,
      "itled": 7049,
      "acre": 7050,
      "beth": 7051,
      "terior": 7052,
      "cong": 7053,
      "aga": 7054,
      "idae": 7055,
      "cloud": 7056,
      "exh": 7057,
      "astron": 7058,
      "quite": 7059,
      "iston": 7060,
      "fee": 7061,
      "airs": 7062,
      "crash": 7063,
      "colour": 7064,
      "drug": 7065,
      "unting": 7066,
      "transit": 7067,
      "showing": 7068,
      "label": 7069,
      "valley": 7070,
      "Stephen": 7071,
      "industrial": 7072,
      "Point": 7073,
      "terminus": 7074,
      "Somal": 7075,
      "chapter": 7076,
      "literary": 7077,
      "examples": 7078,
      "Khánh": 7079,
      "Freder": 7080,
      "sufficient": 7081,
      "Admiral": 7082,
      "integr": 7083,
      "capacity": 7084,
      "AP": 7085,
      "Ele": 7086,
      "Hon": 7087,
      "Por": 7088,
      "Run": 7089,
      "Sav": 7090,
      "bie": 7091,
      "cab": 7092,
      "gers": 7093,
      "none": 7094,
      "pel": 7095,
      "page": 7096,
      "safety": 7097,
      "anda": 7098,
      "ingly": 7099,
      "sects": 7100,
      "bean": 7101,
      "agle": 7102,
      "resour": 7103,
      "abour": 7104,
      "distr": 7105,
      "eman": 7106,
      "ardo": 7107,
      "asser": 7108,
      "assador": 7109,
      "meets": 7110,
      "ansion": 7111,
      "typhoon": 7112,
      "knock": 7113,
      "Show": 7114,
      "cript": 7115,
      "ologists": 7116,
      "winner": 7117,
      "sequences": 7118,
      "vote": 7119,
      "everything": 7120,
      "regularly": 7121,
      "circum": 7122,
      "journey": 7123,
      "portrayed": 7124,
      "mobile": 7125,
      "attributed": 7126,
      "responsibility": 7127,
      "exerc": 7128,
      "Bos": 7129,
      "Iguan": 7130,
      "Sports": 7131,
      "Spring": 7132,
      "Ton": 7133,
      "tale": 7134,
      "uct": 7135,
      "zi": 7136,
      "ano": 7137,
      "recovered": 7138,
      "irs": 7139,
      "concer": 7140,
      "apt": 7141,
      "opher": 7142,
      "plants": 7143,
      "liked": 7144,
      "expect": 7145,
      "antly": 7146,
      "noting": 7147,
      "blocks": 7148,
      "Heavy": 7149,
      "offers": 7150,
      "sche": 7151,
      "crime": 7152,
      "ampions": 7153,
      "flat": 7154,
      "gameplay": 7155,
      "someone": 7156,
      "charter": 7157,
      "suppor": 7158,
      "Rober": 7159,
      "Gram": 7160,
      "approved": 7161,
      "priest": 7162,
      "destroyers": 7163,
      "cruisers": 7164,
      "measures": 7165,
      "specifically": 7166,
      "Brook": 7167,
      "revolution": 7168,
      "rhyth": 7169,
      "instrument": 7170,
      "thousands": 7171,
      "Columbia": 7172,
      "reputation": 7173,
      "57": 7174,
      "Amb": 7175,
      "Daily": 7176,
      "Fire": 7177,
      "Jos": 7178,
      "aud": 7179,
      "hits": 7180,
      "nick": 7181,
      "spr": 7182,
      "uous": 7183,
      "zen": 7184,
      "ala": 7185,
      "deed": 7186,
      "veget": 7187,
      "agents": 7188,
      "erected": 7189,
      "emor": 7190,
      "sie": 7191,
      "worst": 7192,
      "aws": 7193,
      "pton": 7194,
      "forests": 7195,
      "commemor": 7196,
      "surg": 7197,
      "aza": 7198,
      "Marl": 7199,
      "continuing": 7200,
      "defended": 7201,
      "generation": 7202,
      "studied": 7203,
      "younger": 7204,
      "competitions": 7205,
      "occurs": 7206,
      "painted": 7207,
      "Simone": 7208,
      "patron": 7209,
      "separated": 7210,
      "discussed": 7211,
      "department": 7212,
      "biography": 7213,
      "indicate": 7214,
      "embassy": 7215,
      "carrying": 7216,
      "safe": 7217,
      "vessels": 7218,
      "MacLeod": 7219,
      "Caribbean": 7220,
      "63": 7221,
      "88": 7222,
      "97": 7223,
      "DA": 7224,
      "Dur": 7225,
      "Federal": 7226,
      "Hit": 7227,
      "Lenn": 7228,
      "Loren": 7229,
      "Rom": 7230,
      "Sap": 7231,
      "cos": 7232,
      "sle": 7233,
      "wa": 7234,
      "rell": 7235,
      "ophy": 7236,
      "cles": 7237,
      "sized": 7238,
      "fear": 7239,
      "iven": 7240,
      "Chains": 7241,
      "iff": 7242,
      "intention": 7243,
      "dismissed": 7244,
      "1949": 7245,
      "describing": 7246,
      "decis": 7247,
      "xture": 7248,
      "stands": 7249,
      "Perry": 7250,
      "Simon": 7251,
      "interested": 7252,
      "difficulty": 7253,
      "approached": 7254,
      "committed": 7255,
      "alternative": 7256,
      "Hugh": 7257,
      "fitted": 7258,
      "emerged": 7259,
      "Gibr": 7260,
      "Senate": 7261,
      "discovery": 7262,
      "opponents": 7263,
      "Secretary": 7264,
      "Square": 7265,
      "predecess": 7266,
      "Iraq": 7267,
      "DNA": 7268,
      "Hindu": 7269,
      "Hospital": 7270,
      "Mas": 7271,
      "Nar": 7272,
      "Tal": 7273,
      "Tetr": 7274,
      "Ulys": 7275,
      "gall": 7276,
      "jum": 7277,
      "ān": 7278,
      "icipal": 7279,
      "hear": 7280,
      "affect": 7281,
      "Chan": 7282,
      "assess": 7283,
      "creator": 7284,
      "poses": 7285,
      "Anonymous": 7286,
      "Around": 7287,
      "covers": 7288,
      "operating": 7289,
      "rug": 7290,
      "penalty": 7291,
      "attempting": 7292,
      "camps": 7293,
      "basin": 7294,
      "basic": 7295,
      "Moz": 7296,
      "Nether": 7297,
      "hosted": 7298,
      "crosses": 7299,
      "Holy": 7300,
      "accused": 7301,
      "brothers": 7302,
      "exception": 7303,
      "liffe": 7304,
      "Military": 7305,
      "methods": 7306,
      "demol": 7307,
      "picked": 7308,
      "recommended": 7309,
      "ceremony": 7310,
      "academic": 7311,
      "eighth": 7312,
      "sudden": 7313,
      "Gibraltar": 7314,
      "Ulysses": 7315,
      "Aston": 7316,
      "Cel": 7317,
      "Ell": 7318,
      "Here": 7319,
      "Kel": 7320,
      "Mot": 7321,
      "Rio": 7322,
      "WC": 7323,
      "baby": 7324,
      "gé": 7325,
      "gone": 7326,
      "kins": 7327,
      "lu": 7328,
      "inland": 7329,
      "aton": 7330,
      "entry": 7331,
      "adal": 7332,
      "owed": 7333,
      "agues": 7334,
      "oty": 7335,
      "1913": 7336,
      "util": 7337,
      "shots": 7338,
      "manner": 7339,
      "afts": 7340,
      "desire": 7341,
      "prey": 7342,
      "Ant": 7343,
      "retained": 7344,
      "Beaut": 7345,
      "1983": 7346,
      "tribes": 7347,
      "1961": 7348,
      "13th": 7349,
      "persist": 7350,
      "organizations": 7351,
      "grounds": 7352,
      "starred": 7353,
      "believes": 7354,
      "magn": 7355,
      "strongly": 7356,
      "frig": 7357,
      "changing": 7358,
      "politics": 7359,
      "rules": 7360,
      "calcul": 7361,
      "secured": 7362,
      "favorite": 7363,
      "Special": 7364,
      "challenge": 7365,
      "earthquake": 7366,
      "leadership": 7367,
      "extremely": 7368,
      "intensified": 7369,
      "duties": 7370,
      "battleships": 7371,
      "Hornung": 7372,
      "atmosphere": 7373,
      "Cardinal": 7374,
      "68": 7375,
      "AML": 7376,
      "Cas": 7377,
      "Fame": 7378,
      "Gab": 7379,
      "Gore": 7380,
      "Kat": 7381,
      "Kurt": 7382,
      "Mul": 7383,
      "Net": 7384,
      "Ode": 7385,
      "bay": 7386,
      "cation": 7387,
      "fine": 7388,
      "squad": 7389,
      "tong": 7390,
      "infl": 7391,
      "theatre": 7392,
      "ora": 7393,
      "sters": 7394,
      "itage": 7395,
      "lets": 7396,
      "unusual": 7397,
      "superior": 7398,
      "diameter": 7399,
      "province": 7400,
      "ava": 7401,
      "brand": 7402,
      "afternoon": 7403,
      "regime": 7404,
      "column": 7405,
      "canal": 7406,
      "pointed": 7407,
      "warm": 7408,
      "carved": 7409,
      "ception": 7410,
      "1956": 7411,
      "reality": 7412,
      "Duke": 7413,
      "assistant": 7414,
      "equipped": 7415,
      "bringing": 7416,
      "Patrick": 7417,
      "rarely": 7418,
      "thirty": 7419,
      "neighbor": 7420,
      "principal": 7421,
      "Fantasy": 7422,
      "isolated": 7423,
      "parallel": 7424,
      "wedding": 7425,
      "67": 7426,
      "Dota": 7427,
      "Jenn": 7428,
      "Key": 7429,
      "LI": 7430,
      "Pagan": 7431,
      "Tan": 7432,
      "crown": 7433,
      "ien": 7434,
      "jac": 7435,
      "mud": 7436,
      "theat": 7437,
      "itors": 7438,
      "select": 7439,
      "Init": 7440,
      "earch": 7441,
      "evin": 7442,
      "corn": 7443,
      "ureau": 7444,
      "rank": 7445,
      "anniversary": 7446,
      "fled": 7447,
      "regional": 7448,
      "norm": 7449,
      "numbered": 7450,
      "operate": 7451,
      "reception": 7452,
      "passage": 7453,
      "legs": 7454,
      "Forces": 7455,
      "1951": 7456,
      "reviewer": 7457,
      "moral": 7458,
      "Cambridge": 7459,
      "accounts": 7460,
      "Jersey": 7461,
      "Olympics": 7462,
      "embark": 7463,
      "Georgian": 7464,
      "controversy": 7465,
      "dollars": 7466,
      "incorporated": 7467,
      "Francisco": 7468,
      "obtained": 7469,
      "Simpsons": 7470,
      "victims": 7471,
      "expedition": 7472,
      "Tetrarch": 7473,
      "Less": 7474,
      "NBC": 7475,
      "Tel": 7476,
      "U2": 7477,
      "VN": 7478,
      "Wars": 7479,
      "bom": 7480,
      "bond": 7481,
      "eff": 7482,
      "mart": 7483,
      "pushed": 7484,
      "puzz": 7485,
      "sta": 7486,
      "stic": 7487,
      "stab": 7488,
      "illi": 7489,
      "ows": 7490,
      "1900": 7491,
      "1910": 7492,
      "abled": 7493,
      "loan": 7494,
      "partly": 7495,
      "indicated": 7496,
      "transition": 7497,
      "erald": 7498,
      "designation": 7499,
      "attered": 7500,
      "characteristics": 7501,
      "generated": 7502,
      "Prime": 7503,
      "classes": 7504,
      "Order": 7505,
      "Romani": 7506,
      "Similar": 7507,
      "Hamilton": 7508,
      "Township": 7509,
      "Republ": 7510,
      "immediate": 7511,
      "alogue": 7512,
      "teaching": 7513,
      "Mountains": 7514,
      "Archae": 7515,
      "Peninsula": 7516,
      "attracted": 7517,
      "ironclads": 7518,
      "Historic": 7519,
      "platform": 7520,
      "Engineer": 7521,
      "Constantine": 7522,
      "remnants": 7523,
      "passengers": 7524,
      "Hibari": 7525,
      "Chelsea": 7526,
      "112": 7527,
      "3D": 7528,
      "Gang": 7529,
      "Mast": 7530,
      "NS": 7531,
      "Pul": 7532,
      "Qedar": 7533,
      "Ré": 7534,
      "bones": 7535,
      "ees": 7536,
      "hat": 7537,
      "tie": 7538,
      "wine": 7539,
      "thy": 7540,
      "infe": 7541,
      "inci": 7542,
      "income": 7543,
      "arg": 7544,
      "arp": 7545,
      "admitted": 7546,
      "chi": 7547,
      "aph": 7548,
      "resent": 7549,
      "plom": 7550,
      "proceed": 7551,
      "pete": 7552,
      "achu": 7553,
      "evo": 7554,
      "parties": 7555,
      "partial": 7556,
      "Unlike": 7557,
      "whereas": 7558,
      "1977": 7559,
      "armored": 7560,
      "classical": 7561,
      "Life": 7562,
      "Maeda": 7563,
      "medieval": 7564,
      "charts": 7565,
      "Madonna": 7566,
      "Starr": 7567,
      "Activ": 7568,
      "Oslo": 7569,
      "reconnaissance": 7570,
      "Venus": 7571,
      "Haiti": 7572,
      "nomination": 7573,
      "twelve": 7574,
      "Friends": 7575,
      "Mod": 7576,
      "Pur": 7577,
      "cold": 7578,
      "cliffe": 7579,
      "gor": 7580,
      "hot": 7581,
      "pp": 7582,
      "tz": 7583,
      "stall": 7584,
      "withdrew": 7585,
      "apart": 7586,
      "plate": 7587,
      "emotional": 7588,
      "acknow": 7589,
      "Chronic": 7590,
      "lob": 7591,
      "ultane": 7592,
      "mont": 7593,
      "spacing": 7594,
      "indig": 7595,
      "setts": 7596,
      "ensus": 7597,
      "completion": 7598,
      "140": 7599,
      "defences": 7600,
      "promote": 7601,
      "falling": 7602,
      "quez": 7603,
      "1937": 7604,
      "barr": 7605,
      "posted": 7606,
      "glades": 7607,
      "equival": 7608,
      "suffering": 7609,
      "driving": 7610,
      "hotel": 7611,
      "recognition": 7612,
      "learn": 7613,
      "Depression": 7614,
      "seemed": 7615,
      "contribut": 7616,
      "Queens": 7617,
      "feeling": 7618,
      "settled": 7619,
      "Samuel": 7620,
      "rescue": 7621,
      "Memorial": 7622,
      "Weekly": 7623,
      "Massachu": 7624,
      "Rolling": 7625,
      "arrangement": 7626,
      "survivors": 7627,
      "Massachusetts": 7628,
      "99": 7629,
      "CR": 7630,
      "Det": 7631,
      "Fron": 7632,
      "Matt": 7633,
      "Medit": 7634,
      "Pi": 7635,
      "Patt": 7636,
      "dock": 7637,
      "gate": 7638,
      "jump": 7639,
      "ninth": 7640,
      "soft": 7641,
      "tone": 7642,
      "wich": 7643,
      "inning": 7644,
      "erranean": 7645,
      "tos": 7646,
      "ione": 7647,
      "amar": 7648,
      "implement": 7649,
      "igation": 7650,
      "otic": 7651,
      "istry": 7652,
      "overw": 7653,
      "ift": 7654,
      "cessive": 7655,
      "shear": 7656,
      "soil": 7657,
      "followers": 7658,
      "cycle": 7659,
      "signing": 7660,
      "bands": 7661,
      "Cape": 7662,
      "connection": 7663,
      "ucky": 7664,
      "closer": 7665,
      "Montana": 7666,
      "civilian": 7667,
      "threatened": 7668,
      "atoon": 7669,
      "drums": 7670,
      "Industry": 7671,
      "specimens": 7672,
      "installed": 7673,
      "arrested": 7674,
      "Eliza": 7675,
      "Roger": 7676,
      "escort": 7677,
      "ardian": 7678,
      "mushroom": 7679,
      "Frederick": 7680,
      "Iguanodon": 7681,
      "Republican": 7682,
      "Mediterranean": 7683,
      "BN": 7684,
      "Cop": 7685,
      "Rel": 7686,
      "Rangers": 7687,
      "Sher": 7688,
      "cinem": 7689,
      "dal": 7690,
      "ocean": 7691,
      "onica": 7692,
      "orbit": 7693,
      "depos": 7694,
      "teacher": 7695,
      "idd": 7696,
      "emed": 7697,
      "ockey": 7698,
      "Chart": 7699,
      "assumed": 7700,
      "intense": 7701,
      "partners": 7702,
      "spur": 7703,
      "scape": 7704,
      "noisy": 7705,
      "angle": 7706,
      "angerous": 7707,
      "minister": 7708,
      "somewhat": 7709,
      "Review": 7710,
      "Develop": 7711,
      "Sha": 7712,
      "Beach": 7713,
      "memorial": 7714,
      "Maya": 7715,
      "Carl": 7716,
      "returns": 7717,
      "courts": 7718,
      "1955": 7719,
      "1938": 7720,
      "drawing": 7721,
      "Produ": 7722,
      "references": 7723,
      "Eddie": 7724,
      "existed": 7725,
      "Morrison": 7726,
      "Hotel": 7727,
      "Maryland": 7728,
      "absor": 7729,
      "circulation": 7730,
      "Jerusal": 7731,
      "Territ": 7732,
      "Brien": 7733,
      "Transport": 7734,
      "Television": 7735,
      "easily": 7736,
      "eggs": 7737,
      "wrong": 7738,
      "Roxas": 7739,
      "controversial": 7740,
      "Jerusalem": 7741,
      "Jac": 7742,
      "Mit": 7743,
      "Nintend": 7744,
      "Power": 7745,
      "Pope": 7746,
      "Sb": 7747,
      "Yan": 7748,
      "dim": 7749,
      "fi": 7750,
      "foss": 7751,
      "ios": 7752,
      "rus": 7753,
      "rates": 7754,
      "taught": 7755,
      "insist": 7756,
      "enters": 7757,
      "destruction": 7758,
      "wid": 7759,
      "1927": 7760,
      "romantic": 7761,
      "proto": 7762,
      "Story": 7763,
      "disci": 7764,
      "monarch": 7765,
      "monuments": 7766,
      "survey": 7767,
      "Josh": 7768,
      "carbon": 7769,
      "Stefan": 7770,
      "armour": 7771,
      "organised": 7772,
      "advoc": 7773,
      "limit": 7774,
      "communities": 7775,
      "involving": 7776,
      "rapped": 7777,
      "Angle": 7778,
      "driven": 7779,
      "expansion": 7780,
      "belt": 7781,
      "Somali": 7782,
      "stayed": 7783,
      "surrounded": 7784,
      "Jean": 7785,
      "demonstr": 7786,
      "purchase": 7787,
      "camera": 7788,
      "Georgia": 7789,
      "documentary": 7790,
      "environment": 7791,
      "Adams": 7792,
      "Independent": 7793,
      "Truj": 7794,
      "franchise": 7795,
      "Lorenzo": 7796,
      "rugby": 7797,
      "Nintendo": 7798,
      "DC": 7799,
      "NO": 7800,
      "Rain": 7801,
      "jazz": 7802,
      "sam": 7803,
      "snow": 7804,
      "voted": 7805,
      "ét": 7806,
      "instru": 7807,
      "rets": 7808,
      "recover": 7809,
      "stadium": 7810,
      "itated": 7811,
      "sees": 7812,
      "unsuccessful": 7813,
      "ables": 7814,
      "estate": 7815,
      "offense": 7816,
      "Aniston": 7817,
      "cry": 7818,
      "elev": 7819,
      "medium": 7820,
      "memor": 7821,
      "Works": 7822,
      "Carter": 7823,
      "lists": 7824,
      "sequel": 7825,
      "claiming": 7826,
      "1954": 7827,
      "equal": 7828,
      "munition": 7829,
      "novels": 7830,
      "railway": 7831,
      "conduct": 7832,
      "error": 7833,
      "territories": 7834,
      "treaty": 7835,
      "citiz": 7836,
      "concerned": 7837,
      "badly": 7838,
      "Gully": 7839,
      "aggressive": 7840,
      "debate": 7841,
      "shells": 7842,
      "Everglades": 7843,
      "candidate": 7844,
      "Castle": 7845,
      "pyram": 7846,
      "fungus": 7847,
      "expensive": 7848,
      "Nerva": 7849,
      "institutions": 7850,
      "exhaust": 7851,
      "concerts": 7852,
      "Roberts": 7853,
      "Mozamb": 7854,
      "Trujillo": 7855,
      "CC": 7856,
      "Danny": 7857,
      "Hay": 7858,
      "Owen": 7859,
      "Pict": 7860,
      "Ryan": 7861,
      "Vo": 7862,
      "Wis": 7863,
      "cular": 7864,
      "cars": 7865,
      "pine": 7866,
      "wants": 7867,
      "wheel": 7868,
      "recalled": 7869,
      "esis": 7870,
      "ili": 7871,
      "accom": 7872,
      "entitled": 7873,
      "ammunition": 7874,
      "beam": 7875,
      "iday": 7876,
      "diplom": 7877,
      "provin": 7878,
      "cler": 7879,
      "itsune": 7880,
      "owner": 7881,
      "inton": 7882,
      "partially": 7883,
      "answ": 7884,
      "retire": 7885,
      "Recording": 7886,
      "15th": 7887,
      "consult": 7888,
      "description": 7889,
      "Plunk": 7890,
      "1958": 7891,
      "skull": 7892,
      "Harry": 7893,
      "traveled": 7894,
      "reduce": 7895,
      "injured": 7896,
      "Player": 7897,
      "printed": 7898,
      "extension": 7899,
      "walk": 7900,
      "Bradford": 7901,
      "hoped": 7902,
      "distributed": 7903,
      "preserved": 7904,
      "linked": 7905,
      "message": 7906,
      "Rhodesian": 7907,
      "Argentina": 7908,
      "ISBN": 7909,
      "restaurant": 7910,
      "Bang": 7911,
      "Hud": 7912,
      "Jud": 7913,
      "Kong": 7914,
      "Sonic": 7915,
      "Ut": 7916,
      "fing": 7917,
      "mad": 7918,
      "wick": 7919,
      "heat": 7920,
      "bearing": 7921,
      "iance": 7922,
      "upgraded": 7923,
      "offman": 7924,
      "interpret": 7925,
      "product": 7926,
      "products": 7927,
      "Beat": 7928,
      "consum": 7929,
      "1962": 7930,
      "Germans": 7931,
      "Organ": 7932,
      "effectively": 7933,
      "Miss": 7934,
      "footage": 7935,
      "relationships": 7936,
      "treated": 7937,
      "engineering": 7938,
      "Prior": 7939,
      "bella": 7940,
      "Research": 7941,
      "ratings": 7942,
      "possession": 7943,
      "photograph": 7944,
      "illustr": 7945,
      "resistance": 7946,
      "Isabella": 7947,
      "Lisa": 7948,
      "submarine": 7949,
      "agricultural": 7950,
      "Lennon": 7951,
      "Activision": 7952,
      "AT": 7953,
      "Av": 7954,
      "Branch": 7955,
      "Fair": 7956,
      "Hong": 7957,
      "Ky": 7958,
      "Naval": 7959,
      "Rem": 7960,
      "Rhy": 7961,
      "Rug": 7962,
      "Sel": 7963,
      "Tig": 7964,
      "Yank": 7965,
      "gard": 7966,
      "lake": 7967,
      "tight": 7968,
      "wet": 7969,
      "orche": 7970,
      "stap": 7971,
      "stance": 7972,
      "chant": 7973,
      "chronic": 7974,
      "degre": 7975,
      "verte": 7976,
      "aints": 7977,
      "trained": 7978,
      "ills": 7979,
      "essential": 7980,
      "overseas": 7981,
      "grav": 7982,
      "uding": 7983,
      "formally": 7984,
      "Alf": 7985,
      "understand": 7986,
      "genre": 7987,
      "charged": 7988,
      "releg": 7989,
      "Norman": 7990,
      "engines": 7991,
      "identity": 7992,
      "designs": 7993,
      "check": 7994,
      "chemical": 7995,
      "protests": 7996,
      "reading": 7997,
      "joining": 7998,
      "refers": 7999,
      "reviewers": 8000,
      "streets": 8001,
      "victories": 8002,
      "programme": 8003,
      "meetings": 8004,
      "sessions": 8005,
      "learning": 8006,
      "Korea": 8007,
      "colonies": 8008,
      "funds": 8009,
      "habitat": 8010,
      "Calvert": 8011,
      "Stock": 8012,
      "divine": 8013,
      "wearing": 8014,
      "apparently": 8015,
      "elsewhere": 8016,
      "opposite": 8017,
      "modified": 8018,
      "Somalia": 8019,
      "normally": 8020,
      "degrees": 8021,
      "Cad": 8022,
      "Elect": 8023,
      "Flight": 8024,
      "Lau": 8025,
      "Main": 8026,
      "Pass": 8027,
      "Tower": 8028,
      "rh": 8029,
      "rin": 8030,
      "zz": 8031,
      "iner": 8032,
      "eratops": 8033,
      "enburg": 8034,
      "orous": 8035,
      "alph": 8036,
      "arte": 8037,
      "itt": 8038,
      "adjac": 8039,
      "amond": 8040,
      "amateur": 8041,
      "impl": 8042,
      "cement": 8043,
      "context": 8044,
      "elabor": 8045,
      "apa": 8046,
      "moon": 8047,
      "prohib": 8048,
      "exposed": 8049,
      "ears": 8050,
      "lose": 8051,
      "lowest": 8052,
      "ellite": 8053,
      "Where": 8054,
      "ensis": 8055,
      "azing": 8056,
      "1959": 8057,
      "streak": 8058,
      "ruli": 8059,
      "Strand": 8060,
      "reveals": 8061,
      "Veronica": 8062,
      "absence": 8063,
      "occasions": 8064,
      "Singles": 8065,
      "dynam": 8066,
      "restored": 8067,
      "1920s": 8068,
      "detailed": 8069,
      "beautiful": 8070,
      "Mongol": 8071,
      "resources": 8072,
      "Netherlands": 8073,
      "Beauty": 8074,
      "Modern": 8075,
      "equivalent": 8076,
      "Yankovic": 8077,
      "CP": 8078,
      "Dig": 8079,
      "Die": 8080,
      "Glo": 8081,
      "Jif": 8082,
      "Kansas": 8083,
      "MO": 8084,
      "Now": 8085,
      "Ur": 8086,
      "VI": 8087,
      "nut": 8088,
      "sor": 8089,
      "inson": 8090,
      "remark": 8091,
      "atom": 8092,
      "ensure": 8093,
      "stell": 8094,
      "illy": 8095,
      "impossible": 8096,
      "1929": 8097,
      "absol": 8098,
      "abilities": 8099,
      "exchange": 8100,
      "prising": 8101,
      "ignment": 8102,
      "serial": 8103,
      "afterwards": 8104,
      "raise": 8105,
      "westward": 8106,
      "tribute": 8107,
      "poll": 8108,
      "perspect": 8109,
      "1935": 8110,
      "Barbar": 8111,
      "profit": 8112,
      "representing": 8113,
      "laws": 8114,
      "appointment": 8115,
      "ajevo": 8116,
      "burned": 8117,
      "Sarajevo": 8118,
      "practices": 8119,
      "stationed": 8120,
      "requested": 8121,
      "Victorian": 8122,
      "investigation": 8123,
      "throne": 8124,
      "adults": 8125,
      "alleged": 8126,
      "encouraged": 8127,
      "Clarkson": 8128,
      "Journal": 8129,
      "Destiny": 8130,
      "inspiration": 8131,
      "congreg": 8132,
      "Front": 8133,
      "Rugby": 8134,
      "92": 8135,
      "900": 8136,
      "Bad": 8137,
      "DH": 8138,
      "Every": 8139,
      "Hg": 8140,
      "Jere": 8141,
      "Kaw": 8142,
      "Mes": 8143,
      "Nak": 8144,
      "OC": 8145,
      "Sul": 8146,
      "Tok": 8147,
      "Vice": 8148,
      "cash": 8149,
      "faster": 8150,
      "sid": 8151,
      "vul": 8152,
      "onia": 8153,
      "online": 8154,
      "renew": 8155,
      "stere": 8156,
      "icate": 8157,
      "leuk": 8158,
      "accompany": 8159,
      "selection": 8160,
      "agas": 8161,
      "ctic": 8162,
      "cture": 8163,
      "eless": 8164,
      "apy": 8165,
      "1911": 8166,
      "1921": 8167,
      "umin": 8168,
      "lik": 8169,
      "diag": 8170,
      "istan": 8171,
      "afford": 8172,
      "ritual": 8173,
      "Channel": 8174,
      "phr": 8175,
      "izon": 8176,
      "amps": 8177,
      "oba": 8178,
      "gene": 8179,
      "Who": 8180,
      "legend": 8181,
      "talk": 8182,
      "Wilde": 8183,
      "1932": 8184,
      "movements": 8185,
      "suggesting": 8186,
      "alien": 8187,
      "telling": 8188,
      "youngest": 8189,
      "praise": 8190,
      "difficulties": 8191,
      "deliber": 8192,
      "panel": 8193,
      "mountains": 8194,
      "suitable": 8195,
      "Matthew": 8196,
      "scientific": 8197,
      "Democratic": 8198,
      "happened": 8199,
      "Stanley": 8200,
      "false": 8201,
      "fixed": 8202,
      "inhabitants": 8203,
      "protagonist": 8204,
      "Beckham": 8205,
      "adjacent": 8206,
      "Bron": 8207,
      "Cory": 8208,
      "Fern": 8209,
      "Fras": 8210,
      "Kim": 8211,
      "Kevin": 8212,
      "Pine": 8213,
      "Sand": 8214,
      "Wi": 8215,
      "Win": 8216,
      "Your": 8217,
      "uge": 8218,
      "incess": 8219,
      "ensu": 8220,
      "ingale": 8221,
      "isms": 8222,
      "icit": 8223,
      "aming": 8224,
      "olitan": 8225,
      "impression": 8226,
      "comed": 8227,
      "abol": 8228,
      "trust": 8229,
      "astru": 8230,
      "actual": 8231,
      "offs": 8232,
      "brig": 8233,
      "Third": 8234,
      "annually": 8235,
      "angular": 8236,
      "understanding": 8237,
      "enses": 8238,
      "consol": 8239,
      "tribut": 8240,
      "USD": 8241,
      "Islam": 8242,
      "offices": 8243,
      "videos": 8244,
      "listen": 8245,
      "Wilson": 8246,
      "standards": 8247,
      "oxy": 8248,
      "Corpor": 8249,
      "Scientolog": 8250,
      "predomin": 8251,
      "defeating": 8252,
      "crews": 8253,
      "avalry": 8254,
      "Russia": 8255,
      "visitors": 8256,
      "favorable": 8257,
      "Radcliffe": 8258,
      "judge": 8259,
      "hundreds": 8260,
      "distribution": 8261,
      "Confeder": 8262,
      "Austrian": 8263,
      "Skye": 8264,
      "assassination": 8265,
      "appropriate": 8266,
      "Jifna": 8267,
      "91": 8268,
      "Edu": 8269,
      "Gun": 8270,
      "Tro": 8271,
      "fro": 8272,
      "ography": 8273,
      "pure": 8274,
      "pale": 8275,
      "rebels": 8276,
      "enh": 8277,
      "iling": 8278,
      "oll": 8279,
      "impressed": 8280,
      "terbury": 8281,
      "terror": 8282,
      "teor": 8283,
      "ott": 8284,
      "resumed": 8285,
      "1912": 8286,
      "comments": 8287,
      "shark": 8288,
      "neth": 8289,
      "exit": 8290,
      "ishment": 8291,
      "twin": 8292,
      "bright": 8293,
      "interpre": 8294,
      "annah": 8295,
      "memory": 8296,
      "lanes": 8297,
      "Guy": 8298,
      "grey": 8299,
      "Canterbury": 8300,
      "dense": 8301,
      "1931": 8302,
      "bases": 8303,
      "purposes": 8304,
      "influential": 8305,
      "1909": 8306,
      "Mexican": 8307,
      "recognised": 8308,
      "injuries": 8309,
      "languages": 8310,
      "preparation": 8311,
      "executed": 8312,
      "Lawrence": 8313,
      "bulk": 8314,
      "europium": 8315,
      "Human": 8316,
      "chairman": 8317,
      "Writing": 8318,
      "custom": 8319,
      "Athletic": 8320,
      "Ba": 8321,
      "Bh": 8322,
      "Bed": 8323,
      "Bat": 8324,
      "Lower": 8325,
      "Mack": 8326,
      "bats": 8327,
      "cann": 8328,
      "dess": 8329,
      "hl": 8330,
      "iate": 8331,
      "nings": 8332,
      "inHg": 8333,
      "analy": 8334,
      "reck": 8335,
      "orph": 8336,
      "ician": 8337,
      "icide": 8338,
      "heli": 8339,
      "leton": 8340,
      "ilation": 8341,
      "deleg": 8342,
      "ceased": 8343,
      "convers": 8344,
      "usad": 8345,
      "eton": 8346,
      "etts": 8347,
      "option": 8348,
      "emp": 8349,
      "earning": 8350,
      "guil": 8351,
      "elling": 8352,
      "spaces": 8353,
      "shipping": 8354,
      "airline": 8355,
      "anyon": 8356,
      "mixture": 8357,
      "Norway": 8358,
      "Shakes": 8359,
      "ibility": 8360,
      "musicians": 8361,
      "solution": 8362,
      "factory": 8363,
      "styles": 8364,
      "clearly": 8365,
      "Poland": 8366,
      "interests": 8367,
      "Palace": 8368,
      "residential": 8369,
      "materials": 8370,
      "transportation": 8371,
      "watching": 8372,
      "objective": 8373,
      "turrets": 8374,
      "watershed": 8375,
      "huge": 8376,
      "carries": 8377,
      "Burns": 8378,
      "initiative": 8379,
      "lbw": 8380,
      "minimum": 8381,
      "texts": 8382,
      "Banai": 8383,
      "Coleman": 8384,
      "convinced": 8385,
      "Indones": 8386,
      "siege": 8387,
      "overwhel": 8388,
      "Elizabeth": 8389,
      "Shakespe": 8390,
      "Bou": 8391,
      "Blo": 8392,
      "Bah": 8393,
      "Cur": 8394,
      "Labor": 8395,
      "Ni": 8396,
      "Tam": 8397,
      "Treat": 8398,
      "Wolf": 8399,
      "Yo": 8400,
      "dish": 8401,
      "easy": 8402,
      "iest": 8403,
      "nations": 8404,
      "tailed": 8405,
      "ívar": 8406,
      "inaug": 8407,
      "theater": 8408,
      "represents": 8409,
      "ende": 8410,
      "encing": 8411,
      "ande": 8412,
      "demo": 8413,
      "uni": 8414,
      "unch": 8415,
      "agu": 8416,
      "plus": 8417,
      "shor": 8418,
      "clock": 8419,
      "feather": 8420,
      "Chang": 8421,
      "intent": 8422,
      "temples": 8423,
      "internal": 8424,
      "Along": 8425,
      "flash": 8426,
      "genetic": 8427,
      "writings": 8428,
      "muscar": 8429,
      "parish": 8430,
      "engage": 8431,
      "Warren": 8432,
      "kingdom": 8433,
      "armament": 8434,
      "Hergé": 8435,
      "communication": 8436,
      "communications": 8437,
      "itarian": 8438,
      "Police": 8439,
      "composer": 8440,
      "needs": 8441,
      "argues": 8442,
      "prevented": 8443,
      "objects": 8444,
      "Bolívar": 8445,
      "concentr": 8446,
      "windows": 8447,
      "specimen": 8448,
      "behavi": 8449,
      "picture": 8450,
      "descend": 8451,
      "global": 8452,
      "preferred": 8453,
      "reinforcements": 8454,
      "Cambodia": 8455,
      "doubt": 8456,
      "circumstances": 8457,
      "Grammy": 8458,
      "vertebr": 8459,
      "Shakespeare": 8460,
      "Again": 8461,
      "Bureau": 8462,
      "Found": 8463,
      "Goffman": 8464,
      "Hun": 8465,
      "JMA": 8466,
      "PC": 8467,
      "aire": 8468,
      "fest": 8469,
      "mates": 8470,
      "oto": 8471,
      "sailed": 8472,
      "tu": 8473,
      "tes": 8474,
      "ware": 8475,
      "ths": 8476,
      "enous": 8477,
      "heim": 8478,
      "forth": 8479,
      "deemed": 8480,
      "oli": 8481,
      "ela": 8482,
      "otal": 8483,
      "dialogue": 8484,
      "prove": 8485,
      "overs": 8486,
      "iang": 8487,
      "displays": 8488,
      "prep": 8489,
      "nov": 8490,
      "anyone": 8491,
      "interaction": 8492,
      "cris": 8493,
      "retreat": 8494,
      "Real": 8495,
      "Johnston": 8496,
      "Gerard": 8497,
      "causes": 8498,
      "simultane": 8499,
      "soul": 8500,
      "ossal": 8501,
      "Mega": 8502,
      "Clinton": 8503,
      "falls": 8504,
      "periods": 8505,
      "extent": 8506,
      "Geoff": 8507,
      "collect": 8508,
      "representative": 8509,
      "BCE": 8510,
      "survive": 8511,
      "travelled": 8512,
      "electronic": 8513,
      "Koreans": 8514,
      "instance": 8515,
      "keeping": 8516,
      "throwing": 8517,
      "Build": 8518,
      "moments": 8519,
      "Lords": 8520,
      "Janeiro": 8521,
      "Nazi": 8522,
      "prompted": 8523,
      "narrative": 8524,
      "proposal": 8525,
      "Jesus": 8526,
      "bridges": 8527,
      "iques": 8528,
      "Kilmer": 8529,
      "Saprang": 8530,
      "Queensland": 8531,
      "Fraser": 8532,
      "74": 8533,
      "86": 8534,
      "Joy": 8535,
      "Sem": 8536,
      "Wing": 8537,
      "gap": 8538,
      "obl": 8539,
      "ske": 8540,
      "sung": 8541,
      "zac": 8542,
      "inct": 8543,
      "inet": 8544,
      "reconstruction": 8545,
      "atropical": 8546,
      "stim": 8547,
      "toll": 8548,
      "icul": 8549,
      "bee": 8550,
      "imprison": 8551,
      "shut": 8552,
      "feed": 8553,
      "ights": 8554,
      "posure": 8555,
      "corner": 8556,
      "aux": 8557,
      "Hearts": 8558,
      "Anti": 8559,
      "credit": 8560,
      "Comple": 8561,
      "cki": 8562,
      "venues": 8563,
      "arrior": 8564,
      "persu": 8565,
      "considers": 8566,
      "Guardian": 8567,
      "organisation": 8568,
      "aska": 8569,
      "Canal": 8570,
      "1933": 8571,
      "formerly": 8572,
      "rounds": 8573,
      "Moore": 8574,
      "graphics": 8575,
      "Harrison": 8576,
      "looks": 8577,
      "criticised": 8578,
      "slop": 8579,
      "municipal": 8580,
      "poorly": 8581,
      "extratropical": 8582,
      "Richardson": 8583,
      "Lawton": 8584,
      "itzer": 8585,
      "observations": 8586,
      "Justice": 8587,
      "thinking": 8588,
      "defenders": 8589,
      "architecture": 8590,
      "Garc": 8591,
      "instruments": 8592,
      "delayed": 8593,
      "legislation": 8594,
      "decorated": 8595,
      "Palestine": 8596,
      "Originally": 8597,
      "dramatic": 8598,
      "substantial": 8599,
      "infrastru": 8600,
      "acknowled": 8601,
      "Bark": 8602,
      "Dak": 8603,
      "Dark": 8604,
      "Gary": 8605,
      "Komb": 8606,
      "Stop": 8607,
      "Trail": 8608,
      "Wim": 8609,
      "bits": 8610,
      "dney": 8611,
      "grown": 8612,
      "iet": 8613,
      "mac": 8614,
      "ois": 8615,
      "zes": 8616,
      "thesis": 8617,
      "ancing": 8618,
      "rebuilt": 8619,
      "remember": 8620,
      "lev": 8621,
      "acle": 8622,
      "chrom": 8623,
      "ira": 8624,
      "unes": 8625,
      "iders": 8626,
      "uscript": 8627,
      "opt": 8628,
      "library": 8629,
      "sher": 8630,
      "poets": 8631,
      "attained": 8632,
      "ranges": 8633,
      "crest": 8634,
      "Then": 8635,
      "arrive": 8636,
      "useful": 8637,
      "1940s": 8638,
      "See": 8639,
      "towers": 8640,
      "defending": 8641,
      "starling": 8642,
      "Christopher": 8643,
      "vention": 8644,
      "tests": 8645,
      "tested": 8646,
      "copy": 8647,
      "audio": 8648,
      "models": 8649,
      "occupation": 8650,
      "portrait": 8651,
      "establishing": 8652,
      "feelings": 8653,
      "severely": 8654,
      "restoration": 8655,
      "ethnic": 8656,
      "pursue": 8657,
      "Classic": 8658,
      "smooth": 8659,
      "tactics": 8660,
      "Mortal": 8661,
      "journalist": 8662,
      "Formula": 8663,
      "criminal": 8664,
      "astronom": 8665,
      "Hitler": 8666,
      "Kombat": 8667,
      "MI": 8668,
      "RNA": 8669,
      "Sweet": 8670,
      "Ward": 8671,
      "Wright": 8672,
      "cip": 8673,
      "founder": 8674,
      "hid": 8675,
      "lad": 8676,
      "oing": 8677,
      "inher": 8678,
      "informed": 8679,
      "erog": 8680,
      "recur": 8681,
      "remarked": 8682,
      "orient": 8683,
      "ilst": 8684,
      "sect": 8685,
      "seek": 8686,
      "sevent": 8687,
      "aments": 8688,
      "constitution": 8689,
      "ride": 8690,
      "resigned": 8691,
      "compete": 8692,
      "emies": 8693,
      "graf": 8694,
      "grade": 8695,
      "Stand": 8696,
      "mines": 8697,
      "arious": 8698,
      "warships": 8699,
      "sisters": 8700,
      "cargo": 8701,
      "Guard": 8702,
      "1957": 8703,
      "trading": 8704,
      "Ministry": 8705,
      "netic": 8706,
      "Berlin": 8707,
      "techniques": 8708,
      "ullen": 8709,
      "doesn": 8710,
      "villages": 8711,
      "Soon": 8712,
      "Keamy": 8713,
      "assisted": 8714,
      "respective": 8715,
      "engineer": 8716,
      "Offic": 8717,
      "ranging": 8718,
      "altern": 8719,
      "departure": 8720,
      "divor": 8721,
      "Upper": 8722,
      "tunnel": 8723,
      "strategy": 8724,
      "encountered": 8725,
      "rhythm": 8726,
      "Development": 8727,
      "02": 8728,
      "07": 8729,
      "08": 8730,
      "Jr": 8731,
      "Natives": 8732,
      "Sab": 8733,
      "Tar": 8734,
      "Tai": 8735,
      "fountain": 8736,
      "patch": 8737,
      "uable": 8738,
      "thosaurus": 8739,
      "stick": 8740,
      "icon": 8741,
      "wasn": 8742,
      "determ": 8743,
      "unlike": 8744,
      "condem": 8745,
      "1928": 8746,
      "abund": 8747,
      "prosecut": 8748,
      "quant": 8749,
      "outbreak": 8750,
      "gry": 8751,
      "poison": 8752,
      "otherwise": 8753,
      "brush": 8754,
      "ogy": 8755,
      "counties": 8756,
      "productions": 8757,
      "ificial": 8758,
      "helmet": 8759,
      "triple": 8760,
      "originated": 8761,
      "ithic": 8762,
      "depicts": 8763,
      "northward": 8764,
      "striking": 8765,
      "atherine": 8766,
      "gets": 8767,
      "casting": 8768,
      "readers": 8769,
      "difference": 8770,
      "voiced": 8771,
      "Techn": 8772,
      "Express": 8773,
      "ugal": 8774,
      "experiences": 8775,
      "Atlanta": 8776,
      "Jews": 8777,
      "civilians": 8778,
      "engineers": 8779,
      "satellite": 8780,
      "spoke": 8781,
      "indicating": 8782,
      "demonstrated": 8783,
      "Arabic": 8784,
      "schedule": 8785,
      "ordinary": 8786,
      "compounds": 8787,
      "Rajne": 8788,
      "behavior": 8789,
      "Satur": 8790,
      "crops": 8791,
      "Jacob": 8792,
      "pyramid": 8793,
      "Plunketts": 8794,
      "Corythosaurus": 8795,
      "guilty": 8796,
      "crisis": 8797,
      "determine": 8798,
      "Call": 8799,
      "Clar": 8800,
      "Hob": 8801,
      "IA": 8802,
      "Kit": 8803,
      "Mand": 8804,
      "Ple": 8805,
      "Plan": 8806,
      "Ren": 8807,
      "bore": 8808,
      "barri": 8809,
      "dale": 8810,
      "fault": 8811,
      "festival": 8812,
      "hunting": 8813,
      "ij": 8814,
      "jan": 8815,
      "kitsune": 8816,
      "mam": 8817,
      "mature": 8818,
      "rush": 8819,
      "sq": 8820,
      "uto": 8821,
      "vast": 8822,
      "vals": 8823,
      "yd": 8824,
      "anz": 8825,
      "endi": 8826,
      "amino": 8827,
      "bear": 8828,
      "bears": 8829,
      "olay": 8830,
      "ima": 8831,
      "apore": 8832,
      "utz": 8833,
      "expression": 8834,
      "notably": 8835,
      "portions": 8836,
      "blow": 8837,
      "format": 8838,
      "1850": 8839,
      "partner": 8840,
      "disput": 8841,
      "scattered": 8842,
      "understood": 8843,
      "elections": 8844,
      "warning": 8845,
      "describe": 8846,
      "cleared": 8847,
      "iously": 8848,
      "Allah": 8849,
      "differences": 8850,
      "refuge": 8851,
      "Prof": 8852,
      "burgh": 8853,
      "closest": 8854,
      "influences": 8855,
      "garrison": 8856,
      "Earl": 8857,
      "circle": 8858,
      "Palmy": 8859,
      "harbour": 8860,
      "audiences": 8861,
      "electron": 8862,
      "violent": 8863,
      "documents": 8864,
      "kilome": 8865,
      "rupted": 8866,
      "Singapore": 8867,
      "FIA": 8868,
      "Delaware": 8869,
      "bledon": 8870,
      "powered": 8871,
      "Miller": 8872,
      "drove": 8873,
      "climate": 8874,
      "touchdowns": 8875,
      "Silver": 8876,
      "Supreme": 8877,
      "distinguished": 8878,
      "Phoen": 8879,
      "Nevertheless": 8880,
      "assembled": 8881,
      "Ricky": 8882,
      "Marlborough": 8883,
      "predecessor": 8884,
      "Territory": 8885,
      "Stefani": 8886,
      "Corporation": 8887,
      "Wimbledon": 8888,
      "1000": 8889,
      "84": 8890,
      "Dave": 8891,
      "Dick": 8892,
      "Ey": 8893,
      "Gra": 8894,
      "Hok": 8895,
      "Having": 8896,
      "Kin": 8897,
      "Las": 8898,
      "Much": 8899,
      "Our": 8900,
      "Pot": 8901,
      "Prom": 8902,
      "Shel": 8903,
      "cock": 8904,
      "gie": 8905,
      "lined": 8906,
      "ng": 8907,
      "pus": 8908,
      "sale": 8909,
      "remin": 8910,
      "roit": 8911,
      "ente": 8912,
      "owie": 8913,
      "terrain": 8914,
      "ressing": 8915,
      "residence": 8916,
      "1926": 8917,
      "liber": 8918,
      "atech": 8919,
      "excell": 8920,
      "manuscript": 8921,
      "ranking": 8922,
      "displayed": 8923,
      "spin": 8924,
      "tenance": 8925,
      "oys": 8926,
      "cancer": 8927,
      "doct": 8928,
      "trials": 8929,
      "ologies": 8930,
      "musician": 8931,
      "chell": 8932,
      "considering": 8933,
      "Fei": 8934,
      "Monument": 8935,
      "fallen": 8936,
      "generals": 8937,
      "marry": 8938,
      "Administr": 8939,
      "moderate": 8940,
      "Phillies": 8941,
      "Sydney": 8942,
      "burning": 8943,
      "railroad": 8944,
      "conclusion": 8945,
      "altered": 8946,
      "bellion": 8947,
      "FIFA": 8948,
      "bombard": 8949,
      "weapon": 8950,
      "closure": 8951,
      "vehicle": 8952,
      "Pitman": 8953,
      "Confess": 8954,
      "opponent": 8955,
      "collapsed": 8956,
      "Albums": 8957,
      "suspended": 8958,
      "restricted": 8959,
      "supporters": 8960,
      "Initially": 8961,
      "Detroit": 8962,
      "batsman": 8963,
      "behaviour": 8964,
      "prepare": 8965,
      "García": 8966,
      "Bath": 8967,
      "Bush": 8968,
      "ES": 8969,
      "Gro": 8970,
      "Gate": 8971,
      "Hend": 8972,
      "Id": 8973,
      "JT": 8974,
      "Let": 8975,
      "Ra": 8976,
      "Roc": 8977,
      "Sid": 8978,
      "Such": 8979,
      "Women": 8980,
      "dangerous": 8981,
      "eter": 8982,
      "fate": 8983,
      "fishing": 8984,
      "sunk": 8985,
      "saved": 8986,
      "tap": 8987,
      "ár": 8988,
      "eries": 8989,
      "tox": 8990,
      "chamber": 8991,
      "imperial": 8992,
      "convict": 8993,
      "exposure": 8994,
      "prerog": 8995,
      "ifies": 8996,
      "landings": 8997,
      "mec": 8998,
      "desert": 8999,
      "Anzac": 9000,
      "mainland": 9001,
      "obvious": 9002,
      "Shik": 9003,
      "operates": 9004,
      "Guide": 9005,
      "approval": 9006,
      "venture": 9007,
      "Cook": 9008,
      "mbar": 9009,
      "1934": 9010,
      "factors": 9011,
      "situated": 9012,
      "interesting": 9013,
      "goddess": 9014,
      "properties": 9015,
      "nationally": 9016,
      "celebrated": 9017,
      "Caes": 9018,
      "evacuation": 9019,
      "Defence": 9020,
      "premiere": 9021,
      "spiritual": 9022,
      "Championships": 9023,
      "segment": 9024,
      "slip": 9025,
      "Dominican": 9026,
      "exclusively": 9027,
      "giant": 9028,
      "scheme": 9029,
      "Hudson": 9030,
      "Alfred": 9031,
      "absolute": 9032,
      "05": 9033,
      "73": 9034,
      "Baker": 9035,
      "CBS": 9036,
      "Dor": 9037,
      "Denn": 9038,
      "Event": 9039,
      "Lev": 9040,
      "UC": 9041,
      "bran": 9042,
      "creek": 9043,
      "driver": 9044,
      "hull": 9045,
      "kne": 9046,
      "lig": 9047,
      "lord": 9048,
      "laugh": 9049,
      "migr": 9050,
      "saves": 9051,
      "vor": 9052,
      "vir": 9053,
      "threw": 9054,
      "oral": 9055,
      "ici": 9056,
      "hearing": 9057,
      "leon": 9058,
      "acles": 9059,
      "amounts": 9060,
      "aya": 9061,
      "constitut": 9062,
      "elder": 9063,
      "eline": 9064,
      "rible": 9065,
      "rifle": 9066,
      "resign": 9067,
      "uty": 9068,
      "diet": 9069,
      "Ing": 9070,
      "clust": 9071,
      "oslav": 9072,
      "express": 9073,
      "ocy": 9074,
      "creative": 9075,
      "pressing": 9076,
      "disaster": 9077,
      "Until": 9078,
      "underwent": 9079,
      "retre": 9080,
      "Death": 9081,
      "azines": 9082,
      "steep": 9083,
      "Construction": 9084,
      "milit": 9085,
      "ahi": 9086,
      "Allen": 9087,
      "explo": 9088,
      "Web": 9089,
      "realized": 9090,
      "21st": 9091,
      "mitt": 9092,
      "Edge": 9093,
      "Portugal": 9094,
      "ruling": 9095,
      "temporarily": 9096,
      "employment": 9097,
      "housing": 9098,
      "costs": 9099,
      "contribution": 9100,
      "subjects": 9101,
      "Furt": 9102,
      "steps": 9103,
      "biggest": 9104,
      "demands": 9105,
      "Cathedral": 9106,
      "Enterprise": 9107,
      "southeastern": 9108,
      "opportunities": 9109,
      "premiered": 9110,
      "Furthermore": 9111,
      "pupils": 9112,
      "dispatch": 9113,
      "slide": 9114,
      "Swedish": 9115,
      "publisher": 9116,
      "trouble": 9117,
      "McCarty": 9118,
      "Ohio": 9119,
      "accurate": 9120,
      "Aerith": 9121,
      "perspective": 9122,
      "JTWC": 9123,
      "83": 9124,
      "Bass": 9125,
      "Budd": 9126,
      "Cir": 9127,
      "Cab": 9128,
      "Ful": 9129,
      "Lith": 9130,
      "Nel": 9131,
      "Pow": 9132,
      "Rap": 9133,
      "Ster": 9134,
      "Usta": 9135,
      "Wic": 9136,
      "Yug": 9137,
      "banned": 9138,
      "nit": 9139,
      "taker": 9140,
      "irid": 9141,
      "una": 9142,
      "consc": 9143,
      "livan": 9144,
      "tram": 9145,
      "trough": 9146,
      "truck": 9147,
      "aku": 9148,
      "oda": 9149,
      "udo": 9150,
      "ifer": 9151,
      "ewise": 9152,
      "ptions": 9153,
      "renov": 9154,
      "coordin": 9155,
      "scop": 9156,
      "raising": 9157,
      "Ark": 9158,
      "colum": 9159,
      "locks": 9160,
      "elevation": 9161,
      "highways": 9162,
      "succeed": 9163,
      "depending": 9164,
      "Management": 9165,
      "Grade": 9166,
      "stries": 9167,
      "Stewart": 9168,
      "magazines": 9169,
      "seeking": 9170,
      "Moon": 9171,
      "radiation": 9172,
      "Minor": 9173,
      "agogue": 9174,
      "cules": 9175,
      "measured": 9176,
      "Markgraf": 9177,
      "thodon": 9178,
      "researchers": 9179,
      "reservo": 9180,
      "frequent": 9181,
      "Media": 9182,
      "dominant": 9183,
      "Headquarters": 9184,
      "Overall": 9185,
      "qualified": 9186,
      "struggle": 9187,
      "Krak": 9188,
      "advertising": 9189,
      "collapse": 9190,
      "neutral": 9191,
      "benefit": 9192,
      "fatal": 9193,
      "Gilbert": 9194,
      "eliminated": 9195,
      "Baseball": 9196,
      "Olmec": 9197,
      "conspiracy": 9198,
      "psych": 9199,
      "Raffles": 9200,
      "Wrestling": 9201,
      "DAG": 9202,
      "martial": 9203,
      "Mozambique": 9204,
      "Sullivan": 9205,
      "Treaty": 9206,
      "infrastructure": 9207,
      "Saturday": 9208,
      "Furtado": 9209,
      "Ustaš": 9210,
      "Come": 9211,
      "Et": 9212,
      "Hom": 9213,
      "Hamp": 9214,
      "Kenn": 9215,
      "Knight": 9216,
      "Mach": 9217,
      "Niel": 9218,
      "Nash": 9219,
      "Napo": 9220,
      "Pier": 9221,
      "Raw": 9222,
      "Ta": 9223,
      "bac": 9224,
      "card": 9225,
      "dwar": 9226,
      "gross": 9227,
      "jung": 9228,
      "jona": 9229,
      "pa": 9230,
      "pist": 9231,
      "tub": 9232,
      "wreck": 9233,
      "restrict": 9234,
      "ener": 9235,
      "enthus": 9236,
      "stin": 9237,
      "oma": 9238,
      "oming": 9239,
      "urs": 9240,
      "idation": 9241,
      "rib": 9242,
      "artwork": 9243,
      "exists": 9244,
      "Cho": 9245,
      "Stu": 9246,
      "loose": 9247,
      "Hey": 9248,
      "Thus": 9249,
      "scr": 9250,
      "Arjona": 9251,
      "iverse": 9252,
      "submitted": 9253,
      "Lead": 9254,
      "Dean": 9255,
      "Sholay": 9256,
      "paras": 9257,
      "14th": 9258,
      "designer": 9259,
      "lights": 9260,
      "ekān": 9261,
      "characterized": 9262,
      "promised": 9263,
      "armoured": 9264,
      "advancing": 9265,
      "explains": 9266,
      "putting": 9267,
      "household": 9268,
      "Interstate": 9269,
      "testing": 9270,
      "Barry": 9271,
      "everyone": 9272,
      "capturing": 9273,
      "1908": 9274,
      "cyclones": 9275,
      "Valky": 9276,
      "employees": 9277,
      "honour": 9278,
      "reveal": 9279,
      "culmin": 9280,
      "freedom": 9281,
      "Trib": 9282,
      "Campbell": 9283,
      "classification": 9284,
      "withdrawn": 9285,
      "withdrawal": 9286,
      "Israeli": 9287,
      "NCAA": 9288,
      "initiated": 9289,
      "Protestant": 9290,
      "conventional": 9291,
      "NHL": 9292,
      "Lincol": 9293,
      "Belgium": 9294,
      "strategic": 9295,
      "Persian": 9296,
      "Watson": 9297,
      "muscaria": 9298,
      "117": 9299,
      "113": 9300,
      "Ah": 9301,
      "Az": 9302,
      "Amy": 9303,
      "Hop": 9304,
      "Hope": 9305,
      "Kann": 9306,
      "Lam": 9307,
      "Labour": 9308,
      "Nam": 9309,
      "RO": 9310,
      "Rest": 9311,
      "eat": 9312,
      "hind": 9313,
      "iated": 9314,
      "jury": 9315,
      "sad": 9316,
      "sang": 9317,
      "skills": 9318,
      "ux": 9319,
      "vati": 9320,
      "yield": 9321,
      "ön": 9322,
      "inations": 9323,
      "erry": 9324,
      "enemies": 9325,
      "stores": 9326,
      "aman": 9327,
      "proportion": 9328,
      "peaking": 9329,
      "manga": 9330,
      "ported": 9331,
      "iao": 9332,
      "guerr": 9333,
      "coins": 9334,
      "spend": 9335,
      "crake": 9336,
      "angel": 9337,
      "charity": 9338,
      "drain": 9339,
      "backs": 9340,
      "thereafter": 9341,
      "servative": 9342,
      "balls": 9343,
      "metre": 9344,
      "USS": 9345,
      "placement": 9346,
      "hypo": 9347,
      "topped": 9348,
      "childhood": 9349,
      "disturb": 9350,
      "margin": 9351,
      "Tracy": 9352,
      "strongest": 9353,
      "posts": 9354,
      "directors": 9355,
      "profile": 9356,
      "tooth": 9357,
      "graduate": 9358,
      "Maggie": 9359,
      "Hills": 9360,
      "visiting": 9361,
      "boundary": 9362,
      "Toronto": 9363,
      "petition": 9364,
      "Years": 9365,
      "holiday": 9366,
      "Turks": 9367,
      "rolling": 9368,
      "balance": 9369,
      "spores": 9370,
      "biograph": 9371,
      "Boys": 9372,
      "targets": 9373,
      "familiar": 9374,
      "hills": 9375,
      "concentrated": 9376,
      "environmental": 9377,
      "Hawaii": 9378,
      "emphasis": 9379,
      "Communist": 9380,
      "niowie": 9381,
      "Simpson": 9382,
      "strengthened": 9383,
      "dinosaur": 9384,
      "cemetery": 9385,
      "jackrab": 9386,
      "Heavyweight": 9387,
      "discipl": 9388,
      "Wiś": 9389,
      "Barker": 9390,
      "Profess": 9391,
      "Phoenix": 9392,
      "prerogative": 9393,
      "Yugoslav": 9394,
      "columns": 9395,
      "dwarf": 9396,
      "09": 9397,
      "Ag": 9398,
      "Asian": 9399,
      "Da": 9400,
      "Dri": 9401,
      "Eagle": 9402,
      "Gwen": 9403,
      "Hou": 9404,
      "IAA": 9405,
      "Jason": 9406,
      "Ku": 9407,
      "Khand": 9408,
      "Nev": 9409,
      "Rul": 9410,
      "Race": 9411,
      "SM": 9412,
      "Sis": 9413,
      "Vul": 9414,
      "Wag": 9415,
      "Wander": 9416,
      "dles": 9417,
      "gates": 9418,
      "votes": 9419,
      "wings": 9420,
      "inus": 9421,
      "thes": 9422,
      "edges": 9423,
      "alive": 9424,
      "assembly": 9425,
      "itim": 9426,
      "oux": 9427,
      "adier": 9428,
      "beats": 9429,
      "chess": 9430,
      "usage": 9431,
      "rik": 9432,
      "diver": 9433,
      "shock": 9434,
      "emia": 9435,
      "akum": 9436,
      "feels": 9437,
      "avo": 9438,
      "avar": 9439,
      "avia": 9440,
      "geon": 9441,
      "gray": 9442,
      "prime": 9443,
      "kees": 9444,
      "centers": 9445,
      "brain": 9446,
      "adequ": 9447,
      "spots": 9448,
      "ails": 9449,
      "Arsen": 9450,
      "ryce": 9451,
      "regist": 9452,
      "osex": 9453,
      "subspecies": 9454,
      "Afric": 9455,
      "myst": 9456,
      "relations": 9457,
      "consin": 9458,
      "aho": 9459,
      "decay": 9460,
      "decides": 9461,
      "Carmel": 9462,
      "gged": 9463,
      "Graves": 9464,
      "labe": 9465,
      "aimed": 9466,
      "starlings": 9467,
      "Paraly": 9468,
      "Parvati": 9469,
      "believing": 9470,
      "urricanes": 9471,
      "amongst": 9472,
      "friendly": 9473,
      "fundam": 9474,
      "1905": 9475,
      "sounds": 9476,
      "rocks": 9477,
      "fifty": 9478,
      "fifteen": 9479,
      "tellect": 9480,
      "delivery": 9481,
      "Rocky": 9482,
      "discuss": 9483,
      "Glad": 9484,
      "Mrs": 9485,
      "beaten": 9486,
      "batteries": 9487,
      "excavation": 9488,
      "Austria": 9489,
      "beauty": 9490,
      "Jonathan": 9491,
      "patrol": 9492,
      "inscription": 9493,
      "removal": 9494,
      "tavāda": 9495,
      "merely": 9496,
      "appreci": 9497,
      "Kelly": 9498,
      "Réunion": 9499,
      "Wisconsin": 9500,
      "Lithuan": 9501,
      "Ustaše": 9502,
      "Wiśniowie": 9503,
      "Paralymp": 9504,
      "06": 9505,
      "Ace": 9506,
      "Abr": 9507,
      "Benn": 9508,
      "Categ": 9509,
      "Dum": 9510,
      "EA": 9511,
      "Eaton": 9512,
      "Gib": 9513,
      "Have": 9514,
      "Hans": 9515,
      "Kur": 9516,
      "Last": 9517,
      "Link": 9518,
      "Sans": 9519,
      "UFC": 9520,
      "fusion": 9521,
      "flies": 9522,
      "gren": 9523,
      "ients": 9524,
      "nasty": 9525,
      "viv": 9526,
      "inian": 9527,
      "insur": 9528,
      "intellect": 9529,
      "anekān": 9530,
      "toured": 9531,
      "heera": 9532,
      "illegal": 9533,
      "amid": 9534,
      "ige": 9535,
      "cel": 9536,
      "conversion": 9537,
      "usive": 9538,
      "1925": 9539,
      "1923": 9540,
      "sho": 9541,
      "aki": 9542,
      "ods": 9543,
      "acked": 9544,
      "string": 9545,
      "notice": 9546,
      "achute": 9547,
      "pressive": 9548,
      "deser": 9549,
      "Anne": 9550,
      "draf": 9551,
      "substitute": 9552,
      "ropolitan": 9553,
      "surprise": 9554,
      "arriving": 9555,
      "engagement": 9556,
      "choir": 9557,
      "metric": 9558,
      "ashi": 9559,
      "placing": 9560,
      "legitim": 9561,
      "Gray": 9562,
      "talking": 9563,
      "latex": 9564,
      "publications": 9565,
      "breed": 9566,
      "burial": 9567,
      "Anglo": 9568,
      "mediate": 9569,
      "Poly": 9570,
      "predators": 9571,
      "banks": 9572,
      "atinum": 9573,
      "businesses": 9574,
      "potentially": 9575,
      "departed": 9576,
      "application": 9577,
      "conflicts": 9578,
      "Howe": 9579,
      "Bulls": 9580,
      "Bulgar": 9581,
      "distinctive": 9582,
      "Derry": 9583,
      "pulled": 9584,
      "architectural": 9585,
      "Murray": 9586,
      "comparison": 9587,
      "adventure": 9588,
      "Hungarian": 9589,
      "Critics": 9590,
      "demolished": 9591,
      "magnitude": 9592,
      "Network": 9593,
      "theatrical": 9594,
      "Masters": 9595,
      "Patty": 9596,
      "empire": 9597,
      "Rajneesh": 9598,
      "Eventually": 9599,
      "Kannada": 9600,
      "Khandoba": 9601,
      "Arsenal": 9602,
      "Category": 9603,
      "Bi": 9604,
      "Bacon": 9605,
      "Cit": 9606,
      "Ec": 9607,
      "Kon": 9608,
      "Kam": 9609,
      "Midge": 9610,
      "Már": 9611,
      "Next": 9612,
      "NDH": 9613,
      "Son": 9614,
      "Sle": 9615,
      "Slayer": 9616,
      "bare": 9617,
      "bind": 9618,
      "gang": 9619,
      "kings": 9620,
      "navy": 9621,
      "oh": 9622,
      "pir": 9623,
      "pounder": 9624,
      "sop": 9625,
      "sper": 9626,
      "swe": 9627,
      "inje": 9628,
      "rene": 9629,
      "essee": 9630,
      "forty": 9631,
      "uncertain": 9632,
      "unlikely": 9633,
      "teries": 9634,
      "wider": 9635,
      "comfort": 9636,
      "suicide": 9637,
      "neath": 9638,
      "artificial": 9639,
      "ongoing": 9640,
      "akers": 9641,
      "illas": 9642,
      "illing": 9643,
      "exter": 9644,
      "permission": 9645,
      "affil": 9646,
      "evident": 9647,
      "lling": 9648,
      "1830": 9649,
      "guide": 9650,
      "merged": 9651,
      "Ancient": 9652,
      "rede": 9653,
      "oyage": 9654,
      "continental": 9655,
      "completing": 9656,
      "values": 9657,
      "ennium": 9658,
      "armies": 9659,
      "advice": 9660,
      "Count": 9661,
      "variation": 9662,
[...]
